
// This is a TensorFlow Lite model file that has been converted into a C data
// array using the tensorflow.lite.util.convert_bytes_to_c_source() function.
// This form is useful for compiling into a binary for devices that don't have a
// file system.

#include "afLSTM.h"
// We need to keep the data array aligned on some architectures.
#ifdef __has_attribute
#define HAVE_ATTRIBUTE(x) __has_attribute(x)
#else
#define HAVE_ATTRIBUTE(x) 0
#endif
#if HAVE_ATTRIBUTE(aligned) || (defined(__GNUC__) && !defined(__clang__))
#define DATA_ALIGN_ATTRIBUTE __attribute__((aligned(4)))
#else
#define DATA_ALIGN_ATTRIBUTE
#endif

const unsigned char afLSTM[] DATA_ALIGN_ATTRIBUTE = {
    0x1c, 0x00, 0x00, 0x00, 0x54, 0x46, 0x4c, 0x33, 0x14, 0x00, 0x20, 0x00, 0x1c,
    0x00, 0x18, 0x00, 0x14, 0x00, 0x10, 0x00, 0x0c, 0x00, 0x00, 0x00, 0x08, 0x00,
    0x04, 0x00, 0x14, 0x00, 0x00, 0x00, 0x1c, 0x00, 0x00, 0x00, 0x8c, 0x00, 0x00,
    0x00, 0xdc, 0x00, 0x00, 0x00, 0x9c, 0x5e, 0x00, 0x00, 0xac, 0x5e, 0x00, 0x00,
    0xb0, 0xb5, 0x00, 0x00, 0x03, 0x00, 0x00, 0x00, 0x01, 0x00, 0x00, 0x00, 0x04,
    0x00, 0x00, 0x00, 0x32, 0x63, 0xff, 0xff, 0x0c, 0x00, 0x00, 0x00, 0x1c, 0x00,
    0x00, 0x00, 0x3c, 0x00, 0x00, 0x00, 0x0f, 0x00, 0x00, 0x00, 0x73, 0x65, 0x72,
    0x76, 0x69, 0x6e, 0x67, 0x5f, 0x64, 0x65, 0x66, 0x61, 0x75, 0x6c, 0x74, 0x00,
    0x01, 0x00, 0x00, 0x00, 0x04, 0x00, 0x00, 0x00, 0x08, 0x62, 0xff, 0xff, 0x35,
    0x00, 0x00, 0x00, 0x04, 0x00, 0x00, 0x00, 0x08, 0x00, 0x00, 0x00, 0x6f, 0x75,
    0x74, 0x70, 0x75, 0x74, 0x5f, 0x30, 0x00, 0x00, 0x00, 0x00, 0x01, 0x00, 0x00,
    0x00, 0x04, 0x00, 0x00, 0x00, 0xb2, 0x61, 0xff, 0xff, 0x04, 0x00, 0x00, 0x00,
    0x0f, 0x00, 0x00, 0x00, 0x6b, 0x65, 0x72, 0x61, 0x73, 0x5f, 0x74, 0x65, 0x6e,
    0x73, 0x6f, 0x72, 0x5f, 0x31, 0x32, 0x00, 0x02, 0x00, 0x00, 0x00, 0x2c, 0x00,
    0x00, 0x00, 0x04, 0x00, 0x00, 0x00, 0x54, 0x62, 0xff, 0xff, 0x8e, 0x00, 0x00,
    0x00, 0x04, 0x00, 0x00, 0x00, 0x13, 0x00, 0x00, 0x00, 0x43, 0x4f, 0x4e, 0x56,
    0x45, 0x52, 0x53, 0x49, 0x4f, 0x4e, 0x5f, 0x4d, 0x45, 0x54, 0x41, 0x44, 0x41,
    0x54, 0x41, 0x00, 0x78, 0x62, 0xff, 0xff, 0x8d, 0x00, 0x00, 0x00, 0x04, 0x00,
    0x00, 0x00, 0x13, 0x00, 0x00, 0x00, 0x6d, 0x69, 0x6e, 0x5f, 0x72, 0x75, 0x6e,
    0x74, 0x69, 0x6d, 0x65, 0x5f, 0x76, 0x65, 0x72, 0x73, 0x69, 0x6f, 0x6e, 0x00,
    0x8f, 0x00, 0x00, 0x00, 0xbc, 0x5d, 0x00, 0x00, 0xb4, 0x5d, 0x00, 0x00, 0xdc,
    0x5c, 0x00, 0x00, 0x8c, 0x3d, 0x00, 0x00, 0x74, 0x3d, 0x00, 0x00, 0x60, 0x3d,
    0x00, 0x00, 0x58, 0x3d, 0x00, 0x00, 0x38, 0x3d, 0x00, 0x00, 0x24, 0x3d, 0x00,
    0x00, 0x1c, 0x3d, 0x00, 0x00, 0x00, 0x3d, 0x00, 0x00, 0xf8, 0x3c, 0x00, 0x00,
    0xe4, 0x3c, 0x00, 0x00, 0xd0, 0x3c, 0x00, 0x00, 0xf8, 0x3b, 0x00, 0x00, 0xe4,
    0x3b, 0x00, 0x00, 0xdc, 0x3b, 0x00, 0x00, 0xd4, 0x3b, 0x00, 0x00, 0xcc, 0x3b,
    0x00, 0x00, 0xc4, 0x3b, 0x00, 0x00, 0xbc, 0x3b, 0x00, 0x00, 0xb4, 0x3b, 0x00,
    0x00, 0xac, 0x3b, 0x00, 0x00, 0xa4, 0x3b, 0x00, 0x00, 0x9c, 0x3b, 0x00, 0x00,
    0x94, 0x3b, 0x00, 0x00, 0x8c, 0x3b, 0x00, 0x00, 0x84, 0x3b, 0x00, 0x00, 0x7c,
    0x3b, 0x00, 0x00, 0x74, 0x3b, 0x00, 0x00, 0x6c, 0x3b, 0x00, 0x00, 0x64, 0x3b,
    0x00, 0x00, 0x5c, 0x3b, 0x00, 0x00, 0x54, 0x3b, 0x00, 0x00, 0x4c, 0x3b, 0x00,
    0x00, 0x44, 0x3b, 0x00, 0x00, 0x3c, 0x3b, 0x00, 0x00, 0x34, 0x3b, 0x00, 0x00,
    0x2c, 0x3b, 0x00, 0x00, 0x24, 0x3b, 0x00, 0x00, 0x1c, 0x3b, 0x00, 0x00, 0x14,
    0x3b, 0x00, 0x00, 0x0c, 0x3b, 0x00, 0x00, 0x04, 0x3b, 0x00, 0x00, 0xfc, 0x3a,
    0x00, 0x00, 0xf4, 0x3a, 0x00, 0x00, 0xec, 0x3a, 0x00, 0x00, 0xe4, 0x3a, 0x00,
    0x00, 0xdc, 0x3a, 0x00, 0x00, 0xd4, 0x3a, 0x00, 0x00, 0xcc, 0x3a, 0x00, 0x00,
    0xc4, 0x3a, 0x00, 0x00, 0xbc, 0x3a, 0x00, 0x00, 0xb4, 0x3a, 0x00, 0x00, 0xac,
    0x3a, 0x00, 0x00, 0x8c, 0x3a, 0x00, 0x00, 0x6c, 0x3a, 0x00, 0x00, 0x64, 0x3a,
    0x00, 0x00, 0x5c, 0x3a, 0x00, 0x00, 0x54, 0x3a, 0x00, 0x00, 0x4c, 0x3a, 0x00,
    0x00, 0x44, 0x3a, 0x00, 0x00, 0x3c, 0x3a, 0x00, 0x00, 0x34, 0x3a, 0x00, 0x00,
    0x2c, 0x3a, 0x00, 0x00, 0x24, 0x3a, 0x00, 0x00, 0x1c, 0x3a, 0x00, 0x00, 0x14,
    0x3a, 0x00, 0x00, 0x0c, 0x3a, 0x00, 0x00, 0x04, 0x3a, 0x00, 0x00, 0xfc, 0x39,
    0x00, 0x00, 0xf4, 0x39, 0x00, 0x00, 0xec, 0x39, 0x00, 0x00, 0xe4, 0x39, 0x00,
    0x00, 0xdc, 0x39, 0x00, 0x00, 0xd4, 0x39, 0x00, 0x00, 0x84, 0x38, 0x00, 0x00,
    0x74, 0x1f, 0x00, 0x00, 0x24, 0x1e, 0x00, 0x00, 0x1c, 0x1e, 0x00, 0x00, 0x14,
    0x1e, 0x00, 0x00, 0x0c, 0x1e, 0x00, 0x00, 0x04, 0x1e, 0x00, 0x00, 0xfc, 0x1d,
    0x00, 0x00, 0xf4, 0x1d, 0x00, 0x00, 0xec, 0x1d, 0x00, 0x00, 0xe4, 0x1d, 0x00,
    0x00, 0xdc, 0x1d, 0x00, 0x00, 0xd4, 0x1d, 0x00, 0x00, 0xcc, 0x1d, 0x00, 0x00,
    0xc4, 0x1d, 0x00, 0x00, 0xbc, 0x1d, 0x00, 0x00, 0xb4, 0x1d, 0x00, 0x00, 0xac,
    0x1d, 0x00, 0x00, 0xa4, 0x1d, 0x00, 0x00, 0x9c, 0x1d, 0x00, 0x00, 0x94, 0x1d,
    0x00, 0x00, 0x8c, 0x1d, 0x00, 0x00, 0x84, 0x1d, 0x00, 0x00, 0x7c, 0x1d, 0x00,
    0x00, 0x74, 0x1d, 0x00, 0x00, 0x6c, 0x1d, 0x00, 0x00, 0x64, 0x1d, 0x00, 0x00,
    0x5c, 0x1d, 0x00, 0x00, 0x54, 0x1d, 0x00, 0x00, 0x4c, 0x1d, 0x00, 0x00, 0x44,
    0x1d, 0x00, 0x00, 0x3c, 0x1d, 0x00, 0x00, 0x34, 0x1d, 0x00, 0x00, 0x2c, 0x1d,
    0x00, 0x00, 0x24, 0x1d, 0x00, 0x00, 0x1c, 0x1d, 0x00, 0x00, 0x14, 0x1d, 0x00,
    0x00, 0x0c, 0x1d, 0x00, 0x00, 0x04, 0x1d, 0x00, 0x00, 0xfc, 0x1c, 0x00, 0x00,
    0xf4, 0x1c, 0x00, 0x00, 0xa4, 0x1b, 0x00, 0x00, 0x94, 0x02, 0x00, 0x00, 0x44,
    0x01, 0x00, 0x00, 0x3c, 0x01, 0x00, 0x00, 0x34, 0x01, 0x00, 0x00, 0x2c, 0x01,
    0x00, 0x00, 0x24, 0x01, 0x00, 0x00, 0x1c, 0x01, 0x00, 0x00, 0x14, 0x01, 0x00,
    0x00, 0x0c, 0x01, 0x00, 0x00, 0x04, 0x01, 0x00, 0x00, 0xfc, 0x00, 0x00, 0x00,
    0xf4, 0x00, 0x00, 0x00, 0xec, 0x00, 0x00, 0x00, 0xe4, 0x00, 0x00, 0x00, 0xdc,
    0x00, 0x00, 0x00, 0xd4, 0x00, 0x00, 0x00, 0xcc, 0x00, 0x00, 0x00, 0xc4, 0x00,
    0x00, 0x00, 0xbc, 0x00, 0x00, 0x00, 0xb4, 0x00, 0x00, 0x00, 0xac, 0x00, 0x00,
    0x00, 0xa4, 0x00, 0x00, 0x00, 0x9c, 0x00, 0x00, 0x00, 0x7c, 0x00, 0x00, 0x00,
    0x04, 0x00, 0x00, 0x00, 0x62, 0x64, 0xff, 0xff, 0x04, 0x00, 0x00, 0x00, 0x68,
    0x00, 0x00, 0x00, 0x10, 0x00, 0x00, 0x00, 0x00, 0x00, 0x00, 0x00, 0x08, 0x00,
    0x0e, 0x00, 0x08, 0x00, 0x04, 0x00, 0x08, 0x00, 0x00, 0x00, 0x14, 0x00, 0x00,
    0x00, 0x2c, 0x00, 0x00, 0x00, 0x00, 0x00, 0x0a, 0x00, 0x0c, 0x00, 0x08, 0x00,
    0x00, 0x00, 0x07, 0x00, 0x0a, 0x00, 0x00, 0x00, 0x00, 0x00, 0x00, 0x01, 0x04,
    0x00, 0x00, 0x00, 0x00, 0x00, 0x00, 0x00, 0x0c, 0x00, 0x18, 0x00, 0x14, 0x00,
    0x10, 0x00, 0x0c, 0x00, 0x04, 0x00, 0x0c, 0x00, 0x00, 0x00, 0xae, 0xaa, 0xc3,
    0x17, 0xe9, 0xbb, 0x04, 0xeb, 0x02, 0x00, 0x00, 0x00, 0x02, 0x00, 0x00, 0x00,
    0x04, 0x00, 0x00, 0x00, 0x06, 0x00, 0x00, 0x00, 0x32, 0x2e, 0x31, 0x38, 0x2e,
    0x30, 0x00, 0x00, 0xd6, 0x64, 0xff, 0xff, 0x04, 0x00, 0x00, 0x00, 0x10, 0x00,
    0x00, 0x00, 0x32, 0x2e, 0x36, 0x2e, 0x30, 0x00, 0x00, 0x00, 0x00, 0x00, 0x00,
    0x00, 0x00, 0x00, 0x00, 0x00, 0x30, 0x4e, 0xff, 0xff, 0x34, 0x4e, 0xff, 0xff,
    0x38, 0x4e, 0xff, 0xff, 0x3c, 0x4e, 0xff, 0xff, 0x40, 0x4e, 0xff, 0xff, 0x44,
    0x4e, 0xff, 0xff, 0x48, 0x4e, 0xff, 0xff, 0x4c, 0x4e, 0xff, 0xff, 0x50, 0x4e,
    0xff, 0xff, 0x54, 0x4e, 0xff, 0xff, 0x58, 0x4e, 0xff, 0xff, 0x5c, 0x4e, 0xff,
    0xff, 0x60, 0x4e, 0xff, 0xff, 0x64, 0x4e, 0xff, 0xff, 0x68, 0x4e, 0xff, 0xff,
    0x6c, 0x4e, 0xff, 0xff, 0x70, 0x4e, 0xff, 0xff, 0x74, 0x4e, 0xff, 0xff, 0x78,
    0x4e, 0xff, 0xff, 0x7c, 0x4e, 0xff, 0xff, 0x80, 0x4e, 0xff, 0xff, 0x46, 0x65,
    0xff, 0xff, 0x04, 0x00, 0x00, 0x00, 0x40, 0x01, 0x00, 0x00, 0xee, 0x02, 0x9e,
    0xbe, 0xea, 0x82, 0x81, 0xbf, 0x9e, 0x96, 0xe0, 0xbf, 0x54, 0xbf, 0x03, 0xbf,
    0x56, 0xb7, 0xdb, 0xbe, 0xa1, 0xb8, 0xe0, 0xbe, 0x41, 0x22, 0x1e, 0x3e, 0xba,
    0x0b, 0x08, 0xbf, 0x0a, 0xa5, 0xc8, 0xbc, 0xf6, 0xf9, 0xf2, 0xbe, 0x0f, 0xb5,
    0x88, 0xbf, 0x23, 0x97, 0x90, 0x3f, 0x9d, 0x26, 0x26, 0xbe, 0x55, 0x3c, 0x29,
    0xc0, 0xab, 0x88, 0xba, 0xbe, 0x17, 0x10, 0x9e, 0xbf, 0x3f, 0x38, 0x48, 0xbf,
    0x65, 0xe5, 0x9b, 0xbf, 0xf6, 0xa5, 0xc0, 0xbf, 0xb4, 0x7d, 0x4d, 0xbf, 0xea,
    0x80, 0x20, 0x3f, 0x1e, 0xca, 0x87, 0x3e, 0xd4, 0x0e, 0x08, 0x3f, 0x36, 0x18,
    0x8d, 0x3f, 0x2a, 0x6a, 0x0e, 0x3f, 0x7d, 0x95, 0x0b, 0x3f, 0x7d, 0x56, 0x96,
    0x3f, 0x55, 0x86, 0x05, 0x3f, 0x8e, 0xa6, 0xe3, 0xbd, 0xd7, 0x12, 0x1b, 0x3f,
    0x9d, 0xd6, 0x5f, 0x3d, 0xc0, 0x4f, 0x7c, 0xbf, 0x47, 0xa1, 0x73, 0x3f, 0x16,
    0xa4, 0x55, 0x3e, 0x2e, 0xfe, 0x5c, 0x3f, 0xc8, 0x49, 0x8d, 0x3f, 0xf2, 0x37,
    0x0e, 0x40, 0x7c, 0x8a, 0x40, 0x3f, 0xae, 0x62, 0x8f, 0x3f, 0xb1, 0x0c, 0x3d,
    0x3f, 0xf9, 0xca, 0x15, 0xbd, 0xc8, 0xc7, 0x6d, 0xbd, 0xb5, 0xb2, 0x73, 0x3f,
    0xb7, 0x03, 0x06, 0x3d, 0x83, 0x58, 0x9b, 0x3c, 0x54, 0x4f, 0x42, 0x3d, 0xc5,
    0xf8, 0xa2, 0x3e, 0xa2, 0xa6, 0x92, 0x3c, 0xe5, 0xf1, 0x15, 0xbc, 0x0f, 0x1e,
    0x63, 0x3d, 0xbf, 0x4e, 0x80, 0xbc, 0x02, 0xbc, 0x07, 0xbf, 0x93, 0x88, 0x13,
    0x3e, 0x9f, 0x09, 0xa0, 0x3f, 0x6f, 0x1d, 0xa8, 0x3d, 0xeb, 0xcd, 0x8f, 0xbd,
    0x9b, 0x67, 0x9a, 0x3c, 0x3a, 0x2e, 0xb3, 0x3f, 0xe4, 0x52, 0x30, 0x3d, 0x9e,
    0x69, 0x17, 0x3d, 0xac, 0xf5, 0xe0, 0x3d, 0xfc, 0x7c, 0xa8, 0x3e, 0x95, 0x8c,
    0x17, 0xc0, 0x62, 0x83, 0xd2, 0xbe, 0xa8, 0x72, 0xd8, 0xbe, 0xc0, 0x0c, 0xe5,
    0xbe, 0xc8, 0xa4, 0x84, 0xbd, 0x1a, 0xe6, 0xec, 0x3f, 0x75, 0x62, 0xc5, 0xbf,
    0x46, 0x40, 0xe5, 0x3f, 0xb9, 0x55, 0x89, 0xbf, 0x70, 0x88, 0x9e, 0xbf, 0xf6,
    0x9c, 0x5a, 0xbe, 0x28, 0xc6, 0x41, 0xbf, 0x72, 0x1d, 0xc1, 0xbe, 0x16, 0xac,
    0x28, 0x40, 0xa7, 0xe7, 0x4d, 0x3d, 0x54, 0x6b, 0x18, 0xbf, 0x38, 0xd5, 0xbf,
    0xbe, 0x0f, 0xf2, 0x45, 0xbe, 0x92, 0x66, 0xff, 0xff, 0x04, 0x00, 0x00, 0x00,
    0x00, 0x19, 0x00, 0x00, 0x62, 0x5a, 0x8d, 0xbf, 0xe9, 0xea, 0xb4, 0xbf, 0x51,
    0x53, 0xe4, 0x3f, 0xee, 0x2f, 0x5e, 0x3f, 0x2f, 0x85, 0x5a, 0xbd, 0x66, 0xeb,
    0xe5, 0xbe, 0x02, 0xd4, 0xe8, 0xbe, 0xd7, 0xd6, 0x65, 0x3f, 0x4d, 0xb5, 0x23,
    0xbf, 0xde, 0x0d, 0x65, 0xbf, 0x64, 0x1e, 0x7a, 0xbe, 0xee, 0xfe, 0x37, 0x40,
    0xb1, 0x48, 0xe4, 0xbe, 0xb9, 0x60, 0xc1, 0xbd, 0x7a, 0x57, 0xb4, 0xbe, 0x3d,
    0xa4, 0xe5, 0x3e, 0x5f, 0xe8, 0xc3, 0x3f, 0xf5, 0x83, 0x29, 0xc0, 0x64, 0x46,
    0xaf, 0x3f, 0x81, 0xc6, 0x0b, 0x3f, 0xcf, 0x7e, 0x48, 0xbf, 0x0a, 0x2f, 0xfe,
    0x3e, 0x5f, 0x0f, 0x03, 0x40, 0x4a, 0x67, 0x06, 0x3f, 0x48, 0x3c, 0x08, 0xbd,
    0x63, 0x8b, 0x1c, 0x3f, 0xe7, 0xde, 0x72, 0xbf, 0x77, 0x56, 0x33, 0x3e, 0x77,
    0x09, 0x64, 0x3f, 0x4d, 0x99, 0x8d, 0xbf, 0x7f, 0xc0, 0xa1, 0xbe, 0x5e, 0x33,
    0xc0, 0xbf, 0x9d, 0xbd, 0x28, 0xbf, 0xc0, 0x9a, 0x96, 0xbf, 0x44, 0x5f, 0x1b,
    0xbf, 0xa0, 0x28, 0xff, 0x3e, 0x90, 0x8e, 0x95, 0x3e, 0x73, 0xda, 0xcb, 0xbf,
    0x81, 0x67, 0xfa, 0x3e, 0x28, 0x21, 0xb3, 0x3e, 0x07, 0x9e, 0xc2, 0x3e, 0x72,
    0xfa, 0x23, 0xbf, 0x8f, 0x0e, 0x0a, 0xc0, 0x1e, 0xd5, 0x6c, 0x3e, 0xb4, 0x69,
    0x2b, 0x3f, 0x96, 0x6a, 0x59, 0xbe, 0x81, 0x61, 0x41, 0xbe, 0x29, 0x35, 0xdb,
    0xbf, 0x30, 0xe0, 0x66, 0x3f, 0x41, 0x6c, 0x36, 0xc0, 0x70, 0x05, 0xd3, 0xbe,
    0x75, 0x52, 0xc9, 0x3f, 0x20, 0xb8, 0xf4, 0xbd, 0x10, 0x92, 0xc2, 0x3f, 0x25,
    0x1c, 0x04, 0xbe, 0x3e, 0x68, 0x3f, 0xbf, 0x1f, 0x01, 0xc2, 0x3e, 0x2f, 0xe5,
    0x9b, 0x3f, 0x0a, 0x49, 0x09, 0x40, 0xd5, 0x8e, 0x1e, 0x3f, 0x3b, 0xa8, 0xdb,
    0x3e, 0xbf, 0xf4, 0xae, 0xbe, 0x30, 0xed, 0x71, 0xbf, 0x2e, 0x4a, 0x60, 0xbe,
    0xa5, 0x90, 0xc6, 0xbe, 0xe3, 0x1c, 0x9b, 0x3c, 0x26, 0x65, 0x14, 0xbe, 0x51,
    0x65, 0x8d, 0xbd, 0x54, 0x73, 0x9a, 0x3e, 0x06, 0xeb, 0xb7, 0x3c, 0x20, 0xb9,
    0x39, 0xbd, 0x0f, 0x5b, 0x0f, 0x3f, 0x70, 0xe4, 0x16, 0xbd, 0x82, 0x96, 0x4a,
    0xbe, 0xd8, 0x85, 0x97, 0xbe, 0xf8, 0x0e, 0xf3, 0x3e, 0x75, 0x33, 0x24, 0xbe,
    0x02, 0x74, 0x97, 0xbe, 0x53, 0x44, 0x1e, 0xbe, 0xa7, 0x08, 0xf1, 0xbe, 0xd1,
    0xdb, 0x17, 0x3e, 0x50, 0xc5, 0x13, 0x3e, 0xa3, 0xb3, 0x80, 0xbf, 0x58, 0x8a,
    0x10, 0x3b, 0xd9, 0xf9, 0xe2, 0xbe, 0x01, 0xd7, 0xd3, 0xbc, 0x1f, 0x23, 0x0d,
    0xbf, 0x53, 0x0a, 0xac, 0xbe, 0x7f, 0x5f, 0x14, 0x3d, 0x5b, 0x16, 0xc4, 0xbe,
    0xd2, 0x6d, 0x2a, 0xbd, 0xc7, 0x39, 0xb9, 0xbd, 0xd3, 0x88, 0x90, 0xbe, 0x1e,
    0x98, 0xb9, 0xbd, 0xf6, 0xbb, 0xa6, 0xbe, 0x9b, 0xf0, 0x2d, 0x3f, 0x6f, 0x57,
    0x33, 0x3e, 0xdb, 0x74, 0x95, 0xbe, 0x1c, 0xf2, 0x01, 0x3e, 0x89, 0x72, 0x1c,
    0xbf, 0x16, 0x79, 0x1b, 0xbe, 0xee, 0x17, 0xd6, 0x3e, 0xc8, 0x75, 0xa4, 0xbe,
    0x46, 0xef, 0x37, 0x3e, 0x20, 0x3c, 0x83, 0xbc, 0x64, 0x42, 0xf3, 0xbe, 0x34,
    0x67, 0x56, 0xbf, 0x2c, 0x1e, 0x16, 0xbf, 0x54, 0x62, 0x58, 0x3e, 0xa7, 0xb1,
    0x41, 0xbf, 0xb8, 0x20, 0xf3, 0xbb, 0xda, 0x47, 0x85, 0x3e, 0xfc, 0xd2, 0x11,
    0xbf, 0xc6, 0x36, 0xd8, 0xbe, 0x8d, 0xcb, 0xc6, 0xbe, 0x60, 0x6c, 0x63, 0x3f,
    0xbc, 0xc7, 0x85, 0x3d, 0x53, 0x0f, 0x25, 0xbf, 0x1e, 0x1e, 0x78, 0x3d, 0x6e,
    0xe2, 0xa4, 0xbe, 0x0c, 0x54, 0xce, 0xbd, 0x5d, 0xc2, 0xfe, 0x3d, 0x33, 0xed,
    0x49, 0xbe, 0x30, 0x47, 0xb1, 0xbd, 0x23, 0xff, 0xfc, 0xbd, 0x6f, 0x49, 0x64,
    0xbe, 0x66, 0xf8, 0x94, 0x3d, 0x7f, 0xd0, 0x61, 0x3e, 0xf9, 0xff, 0x05, 0xbe,
    0x43, 0x94, 0x61, 0x3e, 0x63, 0xd2, 0x40, 0xbe, 0xbb, 0xe6, 0xe0, 0x3d, 0x76,
    0xc5, 0xa2, 0xbd, 0xbc, 0x88, 0x3a, 0x3c, 0x60, 0x78, 0x7d, 0x3d, 0x4e, 0x07,
    0xfb, 0xbd, 0xbc, 0x3c, 0xc0, 0xbe, 0x77, 0xac, 0xe3, 0xbc, 0xd2, 0x23, 0x80,
    0x3e, 0x45, 0x66, 0x66, 0xbe, 0x0c, 0xc1, 0x00, 0xbf, 0x8a, 0x60, 0x29, 0xbf,
    0xa6, 0x7c, 0xa5, 0xbe, 0x56, 0xce, 0x52, 0x3f, 0xa3, 0x8a, 0x5d, 0xbc, 0x41,
    0x34, 0xa7, 0x3d, 0xca, 0xfa, 0x35, 0xbf, 0x75, 0x1a, 0x44, 0xbf, 0xbd, 0x96,
    0xbf, 0xbe, 0x51, 0x48, 0xe7, 0xbe, 0x38, 0x44, 0xe1, 0xbb, 0x51, 0x17, 0x95,
    0x3e, 0x33, 0x33, 0x12, 0xbf, 0x6f, 0x8a, 0x1f, 0x3e, 0x89, 0xd9, 0xdf, 0xbe,
    0xe1, 0xea, 0x02, 0x3e, 0x94, 0xb6, 0x70, 0x3f, 0xa8, 0x81, 0x09, 0xbf, 0xda,
    0x4b, 0x5e, 0x3f, 0x67, 0x03, 0xf8, 0x3e, 0x11, 0xa8, 0x86, 0x3f, 0xb5, 0x59,
    0x1d, 0x3f, 0xdc, 0xae, 0x2a, 0xbf, 0x82, 0x1a, 0x26, 0xbf, 0xce, 0x09, 0x02,
    0x3e, 0xf7, 0xf2, 0x87, 0xbe, 0x08, 0x92, 0x13, 0xbf, 0x98, 0x65, 0x12, 0xc0,
    0x7d, 0x82, 0x0c, 0x40, 0xa5, 0x04, 0x10, 0xc0, 0x2c, 0xeb, 0xc5, 0xbd, 0x39,
    0x3f, 0xd6, 0x3e, 0x51, 0x3d, 0xd3, 0xbe, 0x06, 0x94, 0xbc, 0xbf, 0x87, 0xdc,
    0x8d, 0xbe, 0x22, 0x0b, 0x8b, 0xbf, 0xd5, 0xb8, 0x62, 0xbf, 0xf3, 0x77, 0x6d,
    0xbe, 0x0f, 0xc8, 0xc4, 0xbf, 0xde, 0xe1, 0x97, 0xbf, 0xaf, 0x35, 0x8b, 0x3d,
    0x7c, 0x4c, 0xd4, 0x3e, 0xa4, 0xd6, 0xa4, 0xbf, 0xb4, 0x80, 0x1b, 0x3e, 0x09,
    0xd6, 0x15, 0xbf, 0xdb, 0x49, 0x52, 0x3e, 0x89, 0xd5, 0x02, 0xbf, 0x78, 0x10,
    0xa7, 0xbe, 0x75, 0x6e, 0x84, 0x3e, 0xaf, 0x17, 0xb9, 0xbe, 0xce, 0x6b, 0x68,
    0x3d, 0x57, 0x8d, 0x29, 0xbf, 0x9d, 0x6d, 0x83, 0xbe, 0xba, 0xbb, 0x0b, 0xbf,
    0xd6, 0x61, 0x43, 0xbf, 0x0f, 0x33, 0xd6, 0x3e, 0x96, 0x3f, 0x39, 0xba, 0x09,
    0x4a, 0x4b, 0xbf, 0xa2, 0xff, 0x80, 0x3d, 0x0a, 0xba, 0x52, 0xbe, 0x33, 0x02,
    0x83, 0xbe, 0xf3, 0x79, 0x11, 0xbe, 0x2b, 0xa5, 0x8d, 0xbe, 0x6e, 0xf0, 0x06,
    0x3f, 0x9d, 0x99, 0x33, 0xbe, 0x5a, 0x02, 0x9d, 0xbe, 0xe0, 0x72, 0x8c, 0xbf,
    0xf9, 0x0e, 0x5d, 0xbf, 0xd5, 0xb1, 0x8b, 0x3e, 0xed, 0x5b, 0x19, 0xbf, 0xc0,
    0x84, 0xa6, 0xbd, 0x0f, 0x1d, 0x36, 0x3d, 0x1d, 0x24, 0x98, 0xbf, 0x71, 0x57,
    0x49, 0xbe, 0x63, 0x4c, 0x50, 0xbf, 0x42, 0x29, 0x40, 0x3f, 0x7d, 0x24, 0xa1,
    0x3e, 0x9b, 0x01, 0x4d, 0xbf, 0xb7, 0x60, 0x65, 0xbd, 0x51, 0x06, 0x99, 0xbd,
    0x39, 0x86, 0xb6, 0x3e, 0xf7, 0xa6, 0x4c, 0x3f, 0xf1, 0x59, 0x49, 0xbf, 0xd0,
    0xc8, 0x9a, 0xbe, 0xc5, 0x26, 0x82, 0xbf, 0x41, 0x98, 0x7a, 0x3e, 0xfb, 0x52,
    0xeb, 0xbf, 0x76, 0x06, 0x6f, 0xbf, 0x17, 0xff, 0x97, 0x3f, 0xc2, 0x8a, 0x0f,
    0xc0, 0x37, 0xc3, 0x2d, 0xbe, 0xe7, 0xe7, 0x35, 0xbf, 0x16, 0x1c, 0x11, 0xc0,
    0xc6, 0xd7, 0xa2, 0xbf, 0x86, 0x69, 0x19, 0xc0, 0x5f, 0xc0, 0xb2, 0xbf, 0x52,
    0xc9, 0x50, 0xbf, 0x80, 0xd0, 0x2f, 0xbf, 0x14, 0x72, 0x56, 0xbf, 0x43, 0xc4,
    0x2b, 0xbf, 0xa5, 0xa7, 0x89, 0xbe, 0xa2, 0x09, 0x10, 0xbe, 0x96, 0x80, 0xdf,
    0x3c, 0x3f, 0x69, 0x88, 0x3e, 0x42, 0x83, 0xa6, 0xbe, 0x1e, 0x7d, 0x85, 0x3d,
    0x52, 0x79, 0xcf, 0xbe, 0x4d, 0x71, 0x1f, 0xbe, 0x4d, 0x8e, 0x4b, 0xbd, 0x8c,
    0x0b, 0x9d, 0xbd, 0x19, 0x6e, 0x93, 0xbe, 0x51, 0x0d, 0x59, 0x3e, 0xa6, 0xe0,
    0xaf, 0xbe, 0xb7, 0x11, 0x83, 0x3e, 0x7a, 0x0c, 0xff, 0xbe, 0x6e, 0x95, 0x10,
    0x3f, 0x5e, 0x96, 0x10, 0xbe, 0x59, 0x03, 0x92, 0xbe, 0x2c, 0xe6, 0x34, 0xbe,
    0x34, 0xe0, 0x72, 0xbe, 0xf7, 0x02, 0x48, 0xbe, 0x36, 0x05, 0x1e, 0xbf, 0x96,
    0xa7, 0xa6, 0xbe, 0x31, 0x64, 0x96, 0x3e, 0x01, 0x61, 0xd9, 0x3e, 0x95, 0xaa,
    0x18, 0xbf, 0xb7, 0x5e, 0x1f, 0xbf, 0x81, 0x9e, 0xf1, 0xc0, 0x50, 0x7d, 0x4e,
    0xbf, 0xec, 0xcf, 0xfb, 0xc0, 0x20, 0xe8, 0xe2, 0xbd, 0x13, 0x42, 0xab, 0xbf,
    0x40, 0x34, 0x40, 0xbf, 0x9e, 0x8b, 0x4f, 0xbf, 0x1d, 0x6f, 0x19, 0xbf, 0xd8,
    0xb0, 0x69, 0xc0, 0x5b, 0x72, 0xb4, 0x3e, 0xa7, 0x61, 0xbc, 0xbe, 0x9c, 0x63,
    0xc5, 0x3e, 0x63, 0x36, 0x51, 0x3f, 0x7c, 0xc5, 0xb1, 0xbe, 0x2a, 0xda, 0x3a,
    0xbe, 0x46, 0x79, 0x84, 0xbe, 0x60, 0x2f, 0x56, 0x3e, 0xec, 0xab, 0x9c, 0xbe,
    0x48, 0x65, 0x8f, 0xbe, 0xf2, 0x7b, 0x25, 0xbf, 0x57, 0xf3, 0x4e, 0xbe, 0x6e,
    0xe5, 0xd6, 0xbd, 0x75, 0x8c, 0xd8, 0xbc, 0xd3, 0x6e, 0x1e, 0xbf, 0x60, 0x63,
    0x08, 0x3e, 0x15, 0x5b, 0xe0, 0xbe, 0xc1, 0xa2, 0x3e, 0x3d, 0x07, 0xef, 0x91,
    0xbe, 0x7a, 0xe8, 0xea, 0x3e, 0x82, 0x23, 0x62, 0xbd, 0x03, 0x6c, 0x78, 0xbe,
    0x58, 0xf0, 0x97, 0xbe, 0x4f, 0xa4, 0xa9, 0xbd, 0xef, 0x27, 0x66, 0xbe, 0x48,
    0xb7, 0x19, 0xbf, 0x95, 0x4f, 0x27, 0x3e, 0xca, 0xee, 0x48, 0x3e, 0x67, 0x04,
    0xc7, 0x3e, 0x33, 0x01, 0xda, 0x3e, 0xb5, 0x40, 0x3c, 0xbf, 0xb2, 0x9b, 0xe9,
    0xbf, 0x6d, 0x37, 0xfc, 0x3e, 0x6d, 0xee, 0x57, 0xbf, 0x99, 0xe9, 0xb0, 0xbe,
    0x05, 0x63, 0x0d, 0xc0, 0x94, 0x17, 0x63, 0xbe, 0x31, 0x39, 0x44, 0xbf, 0x1b,
    0xd9, 0xbc, 0xbe, 0x68, 0xc5, 0x63, 0xbf, 0xae, 0x5d, 0xc6, 0x3e, 0x99, 0xf2,
    0x19, 0xbe, 0xaf, 0x76, 0xb6, 0xbe, 0xe6, 0x87, 0x24, 0x3e, 0x18, 0xe0, 0x03,
    0xbf, 0xb6, 0xfe, 0xc2, 0xbe, 0x51, 0x05, 0x51, 0xbf, 0x6a, 0xf9, 0x6e, 0x3f,
    0xc1, 0xd6, 0xce, 0xbc, 0xe4, 0x04, 0x02, 0xbf, 0xf1, 0xf6, 0x2f, 0xbf, 0x1a,
    0x34, 0xb4, 0xbe, 0x0e, 0x2f, 0xf1, 0x3f, 0x8b, 0xd9, 0xac, 0xbf, 0xbe, 0xc3,
    0x8b, 0xbe, 0x73, 0xf1, 0x2f, 0xbe, 0x01, 0x72, 0xd7, 0xbe, 0x54, 0x44, 0x5a,
    0xc0, 0xaa, 0x6e, 0xd1, 0xbe, 0xcc, 0xa9, 0xe7, 0x3d, 0xcf, 0xe7, 0xe8, 0x3e,
    0x75, 0x9b, 0x33, 0x3f, 0x1f, 0x0b, 0xb6, 0xbe, 0x2c, 0x36, 0x09, 0xbf, 0x85,
    0x4f, 0x9e, 0xbf, 0xe2, 0x62, 0x5c, 0xbf, 0xcb, 0xd3, 0x60, 0x40, 0xaa, 0x02,
    0x0c, 0x3f, 0x02, 0x6b, 0xb3, 0xbe, 0x7a, 0xeb, 0x80, 0x3e, 0xc4, 0xe8, 0xe5,
    0xbc, 0x5f, 0x76, 0x5b, 0xbf, 0x79, 0x65, 0x89, 0xbf, 0x41, 0xee, 0x3d, 0xbf,
    0x3b, 0xeb, 0x83, 0xbe, 0x33, 0xe7, 0x04, 0x3f, 0x3a, 0xd2, 0x21, 0xbe, 0xe4,
    0xa9, 0xba, 0x3f, 0x38, 0x0d, 0x43, 0xbe, 0xea, 0x41, 0xc8, 0xbe, 0x7d, 0xdb,
    0xa9, 0x3f, 0x6a, 0x81, 0x57, 0x3f, 0x98, 0x39, 0x09, 0x40, 0x54, 0x5f, 0xbf,
    0x3f, 0xda, 0x9d, 0xb3, 0xbe, 0xce, 0x04, 0x28, 0xbf, 0xc1, 0x81, 0xd5, 0xbf,
    0x27, 0x65, 0x54, 0x3e, 0x38, 0xe5, 0x38, 0x3d, 0x11, 0x17, 0xbb, 0xbd, 0xb7,
    0xc4, 0x02, 0xbf, 0x58, 0x76, 0xbb, 0xc0, 0x34, 0xdc, 0xa2, 0x3f, 0x0e, 0xd6,
    0xe0, 0xc0, 0x8e, 0x7d, 0x97, 0xbe, 0x69, 0xdd, 0x61, 0xc0, 0x0b, 0x59, 0xd5,
    0xbe, 0x71, 0x71, 0x8a, 0x3f, 0x15, 0x10, 0xcf, 0xbe, 0xef, 0xac, 0x92, 0xc0,
    0xb7, 0x2b, 0x06, 0x3e, 0xf8, 0x57, 0x82, 0x3f, 0x87, 0x75, 0xb6, 0xbf, 0x65,
    0x82, 0x31, 0x3f, 0xe7, 0x05, 0x30, 0xbf, 0x76, 0x10, 0xac, 0xbf, 0x9a, 0xde,
    0x0c, 0x3e, 0xcf, 0xf6, 0x87, 0x3f, 0x42, 0x75, 0xa7, 0xbe, 0x28, 0x70, 0x18,
    0xbe, 0x31, 0xab, 0x1f, 0xbe, 0x6f, 0x6c, 0x96, 0xbf, 0x87, 0xf7, 0x2e, 0x3f,
    0x7c, 0x5c, 0x48, 0xc0, 0x53, 0xdb, 0x8e, 0x3d, 0x64, 0x15, 0x92, 0x3e, 0x50,
    0x20, 0xb9, 0xbd, 0x4c, 0x3f, 0xc3, 0x3f, 0x72, 0x8e, 0xab, 0xbd, 0x8f, 0x6f,
    0x02, 0xc0, 0xfd, 0x36, 0x9b, 0x3f, 0xa5, 0x61, 0x1a, 0xbd, 0x04, 0xfa, 0xaf,
    0x3f, 0xa4, 0x90, 0x24, 0x3f, 0xd7, 0x17, 0xd4, 0xbe, 0x9f, 0xa1, 0x3f, 0xbc,
    0xd3, 0x06, 0x40, 0x3e, 0x44, 0xf7, 0xba, 0x3e, 0x06, 0xf4, 0x45, 0xbe, 0x0d,
    0xb6, 0xb1, 0xbe, 0xe2, 0xae, 0x02, 0xbf, 0x5f, 0x14, 0x0f, 0xbf, 0xeb, 0x96,
    0x97, 0xbe, 0x5e, 0xcf, 0xc0, 0xbe, 0x6f, 0x1a, 0x01, 0xbe, 0xb1, 0xc5, 0x95,
    0x3e, 0xcb, 0x1f, 0x1f, 0xbf, 0x77, 0x57, 0x2e, 0xbe, 0x0c, 0x94, 0xde, 0xbe,
    0x83, 0xc7, 0x0f, 0x3f, 0x42, 0xc9, 0x7f, 0x3e, 0x79, 0xad, 0xa6, 0xbe, 0x74,
    0xef, 0xc2, 0xbd, 0x83, 0xd2, 0x73, 0x3a, 0xd6, 0x01, 0xcb, 0xbe, 0xbb, 0x18,
    0x09, 0xbf, 0x84, 0xd8, 0x05, 0xbf, 0x52, 0xc1, 0xd0, 0x3e, 0x03, 0x16, 0xcc,
    0xbd, 0x24, 0x11, 0xa6, 0x3e, 0x6e, 0x59, 0x4a, 0xbf, 0xbe, 0x70, 0x3b, 0xbf,
    0x0d, 0xeb, 0xa5, 0xbe, 0x83, 0xaa, 0x10, 0xbf, 0x97, 0x59, 0xa0, 0xbe, 0x5d,
    0x86, 0x16, 0x3f, 0xa5, 0xa6, 0x6b, 0xbf, 0x62, 0x79, 0x52, 0xbe, 0x3d, 0xd9,
    0x07, 0xbf, 0x8b, 0x95, 0xc9, 0x3e, 0xad, 0x1b, 0x53, 0x3f, 0x34, 0x91, 0xef,
    0xbe, 0x52, 0xe0, 0x05, 0x3f, 0x94, 0x93, 0x83, 0xbe, 0x91, 0x00, 0xc1, 0xbe,
    0x5a, 0xa6, 0x65, 0xbe, 0xf2, 0xdc, 0x9f, 0xbf, 0x97, 0xca, 0x59, 0xbe, 0x68,
    0xf5, 0x18, 0x3f, 0x30, 0x36, 0xae, 0xbe, 0x0d, 0x24, 0x1c, 0xbe, 0x10, 0xe6,
    0x12, 0xbf, 0x6b, 0xf1, 0xd3, 0x3e, 0xb7, 0x99, 0x6a, 0x3e, 0x76, 0x82, 0xe0,
    0xbe, 0x2d, 0xe3, 0x56, 0xbe, 0x00, 0x0c, 0xcd, 0xbe, 0xc2, 0xcd, 0x2f, 0xbf,
    0x07, 0x95, 0xdc, 0xbe, 0xc0, 0xfe, 0xa4, 0x3e, 0xbc, 0xf1, 0x7d, 0xbd, 0x57,
    0xe9, 0x39, 0xbf, 0x3d, 0x8c, 0xd5, 0x3e, 0x28, 0xd6, 0x1b, 0x3e, 0xde, 0x53,
    0x01, 0x3f, 0xe3, 0x54, 0x7d, 0x3c, 0x08, 0xad, 0x74, 0xbf, 0x65, 0xf5, 0xaa,
    0xbe, 0x4d, 0xd2, 0x2e, 0xbe, 0xe2, 0x89, 0x9b, 0x3c, 0x6b, 0x36, 0x56, 0xbe,
    0xf4, 0xcb, 0x1f, 0x3c, 0x07, 0x69, 0x52, 0x3e, 0x22, 0x98, 0xad, 0x3d, 0x21,
    0xb1, 0x7f, 0x3e, 0x4a, 0xeb, 0x5e, 0xbe, 0x47, 0xcd, 0x58, 0x3e, 0xd3, 0x47,
    0xae, 0xbd, 0x1e, 0xea, 0x4d, 0x3d, 0xcb, 0x53, 0x6a, 0x3d, 0x10, 0x9e, 0xef,
    0xbe, 0xd2, 0xd1, 0x2c, 0xbe, 0x90, 0x19, 0xa9, 0xbd, 0x7b, 0x7a, 0xb8, 0xbe,
    0xb2, 0x07, 0x4f, 0xbe, 0x38, 0x56, 0x37, 0xbd, 0x9d, 0xa6, 0x48, 0xbf, 0xf7,
    0x84, 0xa4, 0x3d, 0xbf, 0x00, 0x22, 0xbf, 0xc3, 0x91, 0xa1, 0x3d, 0x05, 0x03,
    0x1b, 0xbf, 0x59, 0x86, 0x27, 0xbf, 0x1e, 0x75, 0x9e, 0x3c, 0x4c, 0x14, 0xba,
    0xbe, 0x94, 0xe3, 0x5a, 0xbe, 0x95, 0xf2, 0xac, 0xbe, 0xc3, 0x02, 0xb1, 0xbe,
    0xde, 0x85, 0xbd, 0xbe, 0x59, 0x80, 0x73, 0xbe, 0xdc, 0x21, 0x0d, 0x3f, 0x73,
    0x9b, 0xc7, 0x3e, 0x66, 0x8e, 0xaa, 0xbe, 0x80, 0x7a, 0x06, 0x3e, 0xb2, 0x7e,
    0xa5, 0xbe, 0x0c, 0x1d, 0x95, 0xbe, 0xac, 0x38, 0x3f, 0x3d, 0x83, 0x1c, 0xc9,
    0xbe, 0x6d, 0x83, 0x4a, 0x3e, 0x05, 0x69, 0x19, 0x3e, 0xfe, 0x0c, 0x04, 0xbe,
    0xfb, 0x2e, 0x0a, 0xbf, 0x28, 0x83, 0x29, 0xbf, 0x83, 0x8d, 0x42, 0xbe, 0x58,
    0x42, 0xdf, 0xbe, 0x21, 0x37, 0x34, 0xbc, 0x10, 0x74, 0x4a, 0x3e, 0xeb, 0x51,
    0xac, 0xbe, 0x53, 0x15, 0x7a, 0xbe, 0x46, 0x1b, 0xff, 0xbe, 0xad, 0x4b, 0x3f,
    0x3f, 0xdb, 0x11, 0x98, 0x3d, 0x1e, 0x1e, 0xf1, 0xbe, 0xd9, 0xe6, 0x82, 0x3e,
    0x3e, 0x93, 0x7a, 0xbe, 0x8d, 0xc0, 0x6c, 0x3e, 0xa7, 0xf3, 0x06, 0x3b, 0x2b,
    0xd7, 0x01, 0xbf, 0xde, 0x9e, 0x8f, 0x3d, 0x56, 0xf3, 0x71, 0xbe, 0xe4, 0xaf,
    0x0a, 0x3e, 0xe0, 0x18, 0x0e, 0xbc, 0x60, 0xaa, 0x34, 0x3e, 0x11, 0x4f, 0x37,
    0xbe, 0x46, 0xc8, 0x55, 0x3d, 0xe3, 0x08, 0xa2, 0xbe, 0x11, 0x84, 0x04, 0xbf,
    0x49, 0xb1, 0xd1, 0xbc, 0xa5, 0xe0, 0xc7, 0x3c, 0xd4, 0xa7, 0x36, 0x3e, 0x3a,
    0xad, 0x62, 0x3e, 0x4e, 0x27, 0xac, 0xbe, 0x5e, 0x6b, 0x50, 0xbe, 0xbd, 0x24,
    0x1f, 0x3d, 0x66, 0xef, 0xb0, 0xbd, 0x93, 0xf9, 0x8a, 0xbe, 0x61, 0x3c, 0xfc,
    0x3d, 0x59, 0xf0, 0x69, 0xbe, 0x4e, 0xb2, 0x8d, 0x3e, 0x07, 0x70, 0x25, 0xbe,
    0xf3, 0x84, 0xa2, 0x3e, 0x83, 0x0d, 0x52, 0xbf, 0xcf, 0xb1, 0x33, 0xbf, 0xeb,
    0x49, 0x53, 0xbe, 0x65, 0x6d, 0x04, 0xbf, 0xae, 0x4b, 0x9f, 0x3d, 0x7b, 0xc9,
    0x4d, 0x3e, 0x70, 0xe1, 0x08, 0xbf, 0x93, 0x41, 0x97, 0xbd, 0x74, 0x42, 0xf2,
    0xbe, 0xa7, 0xf6, 0x9d, 0x3e, 0x22, 0x83, 0x4a, 0x3e, 0x25, 0xd6, 0x18, 0xbf,
    0xe9, 0xff, 0x5d, 0x3f, 0x94, 0x27, 0x19, 0xbf, 0x69, 0x3f, 0xe8, 0xbf, 0x98,
    0x32, 0xbc, 0xbf, 0x44, 0xa1, 0xff, 0x3f, 0x84, 0x20, 0x86, 0x3f, 0xa8, 0x78,
    0x58, 0x3e, 0x73, 0x92, 0xa5, 0xbe, 0x9a, 0xf4, 0x40, 0xbf, 0x8d, 0xd6, 0xd0,
    0xbf, 0x39, 0xb8, 0x3d, 0xc0, 0x81, 0x21, 0xcf, 0xbf, 0x6b, 0x76, 0xa8, 0xbe,
    0x11, 0x30, 0x42, 0xbf, 0xde, 0x12, 0xfe, 0xbe, 0x2e, 0xd0, 0x66, 0x40, 0xec,
    0x9a, 0xab, 0xbe, 0x45, 0xff, 0xd1, 0xbf, 0xe9, 0xa9, 0xe6, 0x3f, 0x8c, 0xa4,
    0x19, 0x40, 0xbb, 0x74, 0x7e, 0x40, 0xbd, 0xdc, 0x11, 0x40, 0xb0, 0x2a, 0x49,
    0xbf, 0x5a, 0xdf, 0x62, 0x3f, 0xa8, 0x22, 0x6f, 0x3f, 0x2f, 0x55, 0xa7, 0x3e,
    0x6f, 0x35, 0x00, 0xbf, 0xff, 0x1f, 0x88, 0x3e, 0xb2, 0x0e, 0xc5, 0xbe, 0x74,
    0x4c, 0x56, 0x3e, 0xf9, 0xc6, 0x90, 0x3f, 0x02, 0x2b, 0x99, 0xbd, 0xab, 0x33,
    0xdf, 0xbb, 0xe9, 0x4a, 0x1c, 0x3f, 0x79, 0x80, 0x82, 0xbe, 0xe3, 0x52, 0x18,
    0x3e, 0x1a, 0x29, 0xbc, 0xbe, 0x74, 0x12, 0x8f, 0x3f, 0xdc, 0x5b, 0xf3, 0x3d,
    0x1a, 0x76, 0xab, 0x3e, 0x18, 0xdc, 0x86, 0x3d, 0xdd, 0xe2, 0xb9, 0x3e, 0x6a,
    0x18, 0xa4, 0xbe, 0xc5, 0xa8, 0x27, 0x3e, 0x5c, 0xa3, 0x0c, 0xbf, 0xb3, 0x91,
    0x19, 0x3f, 0x1e, 0x8d, 0x0a, 0xbe, 0x0c, 0x4d, 0xa7, 0x3d, 0x78, 0xe9, 0x5e,
    0xbf, 0xae, 0x12, 0x3c, 0xbf, 0x10, 0x32, 0x24, 0x3e, 0xfc, 0x3c, 0xfe, 0xbe,
    0x08, 0x8f, 0x04, 0x3e, 0x12, 0x12, 0x5f, 0x3e, 0xfd, 0x5b, 0x4c, 0xbf, 0xef,
    0x18, 0x96, 0xbe, 0xd4, 0xda, 0x47, 0xbf, 0x9c, 0x32, 0x1e, 0x3f, 0xc5, 0x3e,
    0x48, 0x3e, 0x5a, 0x04, 0x17, 0xbf, 0x27, 0x40, 0x85, 0xbd, 0x90, 0x17, 0xb6,
    0xbd, 0x27, 0xe0, 0xda, 0xbe, 0xc5, 0x32, 0x68, 0x3f, 0xe6, 0x07, 0xfa, 0xbf,
    0xb2, 0xc8, 0xe3, 0x3f, 0x6a, 0xbc, 0x3e, 0xbf, 0x68, 0x40, 0x50, 0xbe, 0xe1,
    0xf1, 0xbb, 0xbf, 0xe8, 0x8c, 0x06, 0xc0, 0x7e, 0xbb, 0x8f, 0x3e, 0xfa, 0x51,
    0xf7, 0xbf, 0xd5, 0x2a, 0x8b, 0x3d, 0x46, 0x3d, 0xf6, 0x3e, 0x54, 0x1d, 0x1d,
    0xc0, 0xa9, 0x74, 0x60, 0xbf, 0x7d, 0x8f, 0xf8, 0xbf, 0x14, 0x5d, 0x96, 0x3f,
    0x4f, 0xce, 0xce, 0x3e, 0x80, 0x77, 0xaf, 0xbf, 0x90, 0x12, 0x9a, 0x3e, 0x92,
    0x88, 0xa2, 0xbf, 0x36, 0x03, 0xc9, 0xbe, 0x8c, 0x41, 0xf5, 0xbd, 0xa1, 0x02,
    0x39, 0xbe, 0x78, 0x19, 0xb4, 0x3e, 0xf5, 0x40, 0xf8, 0xbe, 0x1b, 0x89, 0x10,
    0x3e, 0x75, 0xb8, 0x1a, 0xbf, 0x6a, 0x72, 0x12, 0x3d, 0x3f, 0x1c, 0x11, 0xbe,
    0x82, 0xe6, 0x90, 0xbd, 0x8b, 0x3f, 0xa9, 0xbe, 0x27, 0x3d, 0xb9, 0xbe, 0xe4,
    0x6a, 0xbe, 0xbe, 0x36, 0xb6, 0x99, 0xbd, 0x56, 0x69, 0xa6, 0xbe, 0xef, 0x54,
    0x90, 0x3e, 0x50, 0x47, 0x3a, 0x3c, 0x4c, 0x94, 0x7d, 0xbe, 0xf3, 0xbc, 0x8e,
    0x3d, 0xcb, 0xeb, 0x2d, 0xbe, 0xd8, 0x27, 0x29, 0xbf, 0x0a, 0x16, 0x74, 0xbe,
    0xc2, 0xb7, 0x71, 0xbf, 0xd9, 0xb7, 0xa7, 0x3e, 0x61, 0x47, 0xd7, 0x3e, 0xa9,
    0x3c, 0xef, 0xbe, 0xce, 0xdb, 0x3d, 0xbf, 0x84, 0xc2, 0x91, 0xbe, 0x87, 0x32,
    0x80, 0x3f, 0xe7, 0x1a, 0x64, 0xbf, 0x6c, 0x8a, 0x45, 0xbe, 0xd6, 0x3e, 0x0a,
    0xc0, 0x0f, 0xc8, 0x34, 0xbf, 0xfd, 0x48, 0xf7, 0xbe, 0xa9, 0x6f, 0x23, 0xbf,
    0x02, 0x4d, 0x02, 0xbf, 0x89, 0x77, 0xa4, 0x3e, 0x8d, 0x9b, 0x99, 0xbe, 0x1f,
    0x88, 0x2e, 0x3f, 0x43, 0x8d, 0x15, 0x3f, 0xd4, 0x13, 0x8c, 0xbe, 0xe6, 0xa2,
    0xcb, 0xbe, 0x40, 0x98, 0x0a, 0xbf, 0x39, 0x0c, 0x38, 0x3d, 0x43, 0x8b, 0xd8,
    0xbe, 0x74, 0xe0, 0x2b, 0xbe, 0x0b, 0xfb, 0xb4, 0xbe, 0xc3, 0x32, 0xf9, 0xbd,
    0x68, 0x49, 0x12, 0x3d, 0xf5, 0x29, 0x07, 0x3c, 0x2e, 0xdd, 0xa9, 0xbe, 0xc9,
    0xb0, 0xa8, 0xbe, 0x72, 0xa3, 0xd1, 0xbd, 0x1a, 0xf7, 0x52, 0x3e, 0xa2, 0x50,
    0x62, 0xbe, 0x45, 0x04, 0x58, 0x3e, 0x05, 0x5e, 0x9e, 0x3e, 0x1b, 0xcc, 0xce,
    0xbe, 0x00, 0xcc, 0x03, 0xbf, 0xeb, 0xfa, 0x8c, 0xbe, 0x78, 0x4d, 0x91, 0xbe,
    0xee, 0x58, 0xd4, 0x3e, 0xe6, 0x7d, 0xf0, 0xc0, 0xf3, 0x24, 0x89, 0xbd, 0x2b,
    0xdc, 0xa9, 0x3e, 0x9f, 0x5c, 0x8f, 0x3e, 0xf8, 0xd7, 0xa5, 0xbe, 0x30, 0x50,
    0x73, 0xbf, 0x53, 0xd8, 0xfa, 0xbe, 0xaa, 0xdc, 0xd6, 0x3f, 0x47, 0xdc, 0xb6,
    0xbe, 0xe4, 0x67, 0x19, 0xc0, 0x5a, 0x64, 0x8a, 0xbe, 0xe4, 0x8f, 0x37, 0xc0,
    0x3e, 0x78, 0x3c, 0xbe, 0x95, 0x38, 0x5a, 0x3f, 0x9c, 0x58, 0x23, 0xbf, 0x34,
    0x21, 0x31, 0xc0, 0x30, 0x52, 0x20, 0xc0, 0xc1, 0xc7, 0x73, 0xbf, 0xca, 0xa8,
    0x13, 0x3f, 0x25, 0x9b, 0xcc, 0x3e, 0x9c, 0x79, 0x64, 0xbf, 0xc8, 0xe3, 0x5c,
    0xbe, 0xaf, 0x81, 0xfb, 0xbe, 0x9a, 0xd5, 0xed, 0xbe, 0x77, 0x6c, 0x05, 0xbf,
    0x69, 0x3c, 0x76, 0xc0, 0x2f, 0x92, 0xed, 0x3e, 0x55, 0x74, 0x06, 0xc0, 0x42,
    0x86, 0x51, 0x3d, 0xe8, 0xba, 0x05, 0xc0, 0xca, 0x50, 0xb8, 0xbe, 0x4d, 0xff,
    0x2c, 0xc0, 0xdf, 0xbb, 0x94, 0xbe, 0xab, 0x68, 0x83, 0x3e, 0xdf, 0x9c, 0xf7,
    0xbf, 0xff, 0x12, 0x9d, 0xbf, 0xf7, 0xbd, 0x29, 0xc0, 0x39, 0x85, 0xdb, 0xbf,
    0x8a, 0xc6, 0xde, 0x3c, 0x58, 0x58, 0xb8, 0xbd, 0xdd, 0xd8, 0x94, 0xbf, 0xdd,
    0x2f, 0x7a, 0x3e, 0xf9, 0x3e, 0x56, 0x3e, 0x3f, 0x9f, 0x49, 0x3e, 0xa3, 0x59,
    0x02, 0xbf, 0xa8, 0x12, 0x1e, 0x3c, 0x37, 0xf2, 0xe8, 0x3d, 0x9e, 0x38, 0xbf,
    0x3e, 0xbf, 0xa5, 0xc8, 0xbe, 0xb7, 0x85, 0x9a, 0xbf, 0xd3, 0xa6, 0x8e, 0xbe,
    0xa0, 0xf9, 0x9c, 0xbe, 0xec, 0xe9, 0xa4, 0xbe, 0xad, 0xe6, 0xe2, 0x3e, 0xf9,
    0x86, 0xcb, 0x3c, 0x2a, 0xfd, 0xbf, 0xbe, 0x8f, 0xfd, 0x6c, 0xbc, 0x46, 0xb7,
    0x9f, 0xbe, 0x6d, 0x30, 0x66, 0xbe, 0xb4, 0x3e, 0x44, 0x3e, 0xe0, 0x9d, 0x8a,
    0x3f, 0xac, 0x17, 0x0e, 0x3e, 0xde, 0xe4, 0x11, 0xbd, 0x96, 0x43, 0xbb, 0xbd,
    0x31, 0x15, 0x40, 0xbe, 0x00, 0xb1, 0xe0, 0x3f, 0x59, 0x68, 0x89, 0xbf, 0x5a,
    0xf9, 0x22, 0x40, 0x6d, 0xfd, 0x4e, 0xbe, 0x0a, 0xac, 0xaa, 0xbf, 0x72, 0xf4,
    0x58, 0x3c, 0xd5, 0xac, 0xad, 0xbc, 0x68, 0x87, 0x46, 0xbe, 0xe6, 0x8b, 0x31,
    0x3f, 0x89, 0xd3, 0x62, 0x3e, 0x75, 0xe9, 0xfc, 0xbf, 0xbf, 0x9b, 0xae, 0x3e,
    0x29, 0x82, 0xac, 0x3c, 0xeb, 0x40, 0x82, 0xbf, 0x70, 0xd7, 0x64, 0x3c, 0x96,
    0x27, 0x86, 0xc0, 0x92, 0x5b, 0x99, 0x3c, 0x97, 0xcc, 0xd0, 0xbe, 0xd3, 0x00,
    0x86, 0xbd, 0x95, 0xf7, 0x17, 0xbe, 0x3f, 0xd9, 0x75, 0x3e, 0x3a, 0xec, 0x46,
    0x40, 0x8d, 0x5b, 0x56, 0x3e, 0x55, 0xfc, 0xd8, 0x3d, 0xa7, 0xf6, 0x42, 0xbf,
    0x25, 0x40, 0xea, 0xbe, 0x5f, 0x5e, 0x59, 0xbe, 0xa9, 0xef, 0xba, 0x3d, 0xab,
    0x00, 0x35, 0x3f, 0x5b, 0xde, 0x63, 0x3f, 0x13, 0x50, 0x18, 0xc0, 0x5d, 0x60,
    0x1f, 0xbf, 0x50, 0x8e, 0xeb, 0x3d, 0xc6, 0xcf, 0xd1, 0xbe, 0x88, 0xb2, 0x50,
    0xbf, 0x72, 0xb7, 0x4b, 0x3f, 0x03, 0x45, 0x21, 0x3f, 0x64, 0x94, 0x7d, 0xbe,
    0xa2, 0xc1, 0x92, 0xbd, 0x8c, 0x86, 0x5e, 0xbd, 0xd3, 0xe1, 0x2d, 0xbf, 0x4b,
    0x1e, 0x0c, 0xbf, 0x57, 0xed, 0x14, 0xbf, 0xa4, 0x45, 0x20, 0xbe, 0x70, 0x34,
    0x34, 0x3f, 0x96, 0x0f, 0xa4, 0x3d, 0x6a, 0xc0, 0x39, 0x3f, 0x9a, 0xc6, 0x83,
    0xbd, 0xa1, 0x12, 0xeb, 0xbe, 0x3d, 0x27, 0x0c, 0x3f, 0xe7, 0x96, 0xbd, 0x3e,
    0x7b, 0x05, 0x89, 0x3d, 0x6b, 0x58, 0xe3, 0x3e, 0xc0, 0x39, 0x04, 0xbf, 0x69,
    0xa2, 0x1d, 0xbf, 0xea, 0x6f, 0x77, 0x3f, 0xce, 0x0c, 0x27, 0x3e, 0x38, 0x22,
    0x02, 0xbe, 0xc7, 0x2f, 0x04, 0x3e, 0x7a, 0x11, 0x41, 0xbd, 0xac, 0xdf, 0x86,
    0xbd, 0x1e, 0x2a, 0xc7, 0xbd, 0xba, 0xd1, 0x44, 0xbe, 0xa9, 0xfc, 0x52, 0xbd,
    0x2a, 0x33, 0x2a, 0x3f, 0x06, 0x1d, 0x08, 0xbe, 0xe0, 0xd0, 0xb4, 0xbe, 0x93,
    0x4a, 0x25, 0xbd, 0x90, 0xbe, 0xb7, 0xbb, 0x90, 0xcd, 0x73, 0x3c, 0xb3, 0x68,
    0xc2, 0x3e, 0x57, 0x5e, 0xd3, 0xbe, 0x7a, 0xbe, 0xaf, 0x3e, 0x43, 0xe9, 0x9d,
    0x3e, 0x13, 0x42, 0xdb, 0x3e, 0x91, 0x48, 0x74, 0x3e, 0xd6, 0x7b, 0x82, 0xbe,
    0xd8, 0xc7, 0x11, 0x3f, 0xe0, 0x80, 0xfd, 0xbe, 0x14, 0xa2, 0x8b, 0xbe, 0xa7,
    0x8c, 0xb6, 0x3f, 0x7f, 0x6a, 0x69, 0x3e, 0x83, 0xde, 0x75, 0x3f, 0xb6, 0xb5,
    0x9a, 0xbe, 0x5b, 0x8b, 0x02, 0x3f, 0xf0, 0xc5, 0xb9, 0xbe, 0xef, 0xa4, 0x81,
    0xbf, 0x10, 0xfc, 0xe4, 0xbe, 0x59, 0xa7, 0x2a, 0x3f, 0x42, 0xa4, 0xb5, 0xbe,
    0xe6, 0x1c, 0x61, 0xbf, 0x54, 0x0d, 0x1e, 0xbf, 0xce, 0xaf, 0x1e, 0xbf, 0x5a,
    0x6a, 0x97, 0xbe, 0xfe, 0x5f, 0x1c, 0x3d, 0x9f, 0x37, 0xe7, 0x3e, 0xe9, 0x5d,
    0xb4, 0x3e, 0xf8, 0x9f, 0x54, 0xbd, 0xc4, 0xe5, 0xce, 0x3c, 0x65, 0x6d, 0x66,
    0xbd, 0x1a, 0x41, 0x09, 0xbe, 0xc7, 0x0e, 0x3d, 0x3c, 0x85, 0x89, 0x97, 0xbe,
    0xa7, 0x36, 0x07, 0xbe, 0x30, 0xf9, 0x3d, 0xb8, 0x85, 0xf2, 0x8b, 0xbe, 0x99,
    0xcb, 0xf3, 0xbe, 0x5e, 0xb5, 0x4a, 0xbe, 0x2b, 0xbd, 0xcb, 0xbd, 0xd1, 0xef,
    0x0a, 0x3e, 0x73, 0x39, 0xbc, 0xbe, 0x58, 0x28, 0x99, 0x3e, 0xe2, 0x0c, 0x32,
    0x3e, 0xef, 0x69, 0xe8, 0x3e, 0x84, 0xc0, 0xbe, 0x3e, 0x3c, 0x24, 0x39, 0xbf,
    0xeb, 0xfd, 0xd3, 0xbe, 0x9b, 0xad, 0xbd, 0xbe, 0xcd, 0x69, 0x22, 0xbd, 0x7c,
    0x33, 0x4b, 0x3e, 0x05, 0x4d, 0x55, 0x3e, 0xaf, 0xdc, 0x80, 0x3e, 0x8a, 0x26,
    0x90, 0x3e, 0xa1, 0xa9, 0x12, 0x3e, 0xa5, 0x5e, 0xee, 0xbe, 0x41, 0xd8, 0x56,
    0x3e, 0xb7, 0xc8, 0xc3, 0xbe, 0x68, 0xdd, 0x1f, 0xbb, 0x73, 0x7e, 0xe0, 0xbb,
    0x7f, 0x76, 0xcd, 0xbe, 0xa1, 0x8d, 0xbb, 0xbe, 0x7b, 0x5b, 0xd4, 0xbd, 0x9e,
    0xbe, 0x0a, 0x3c, 0xf0, 0xfb, 0x42, 0xbb, 0xfc, 0x64, 0x13, 0xbe, 0x28, 0xf2,
    0x78, 0x3c, 0xbd, 0x8d, 0x88, 0xbc, 0x52, 0x73, 0xeb, 0x3a, 0xd2, 0xca, 0xa2,
    0xbe, 0xbf, 0x93, 0x33, 0xbe, 0x83, 0x9d, 0x8e, 0xbe, 0x6e, 0x2f, 0x21, 0xbd,
    0xcb, 0x9c, 0x13, 0xbc, 0x7a, 0x0d, 0x8d, 0xbd, 0xe9, 0x36, 0x47, 0x3e, 0xf0,
    0x79, 0x9f, 0xbe, 0xf3, 0x9b, 0x38, 0xbe, 0x64, 0x64, 0x8c, 0xbe, 0x0e, 0x49,
    0xbf, 0x3c, 0x45, 0x89, 0x6f, 0x3e, 0x21, 0x2c, 0x89, 0xbd, 0xb3, 0x6d, 0x8c,
    0x3e, 0xf0, 0x6f, 0x40, 0x3e, 0xfb, 0xe4, 0xdf, 0x3c, 0xf1, 0xb3, 0x1b, 0xbc,
    0x3d, 0x39, 0xfa, 0x3c, 0xfc, 0x87, 0x95, 0xbe, 0x0c, 0xa2, 0x4a, 0x3c, 0x6f,
    0x00, 0xca, 0x3c, 0xce, 0xd5, 0x91, 0x3e, 0x2c, 0x46, 0xaf, 0x3e, 0xcd, 0x9f,
    0xaf, 0x3d, 0x82, 0x67, 0x7a, 0x3e, 0xcb, 0xb2, 0x09, 0xbd, 0xc0, 0x6c, 0xf3,
    0x3d, 0x35, 0xe6, 0x23, 0x3e, 0x9a, 0xcd, 0xba, 0x3e, 0x55, 0x2e, 0x2f, 0x3e,
    0x0e, 0x92, 0x47, 0xbe, 0xfc, 0xdb, 0xa6, 0xbd, 0x94, 0x1f, 0x72, 0xbc, 0xe1,
    0x40, 0x1c, 0x3e, 0x10, 0xab, 0x29, 0xbe, 0xd3, 0xaf, 0x16, 0xbe, 0xb3, 0xf0,
    0xab, 0xbe, 0xa8, 0x03, 0xf3, 0x3e, 0x88, 0x0a, 0x31, 0x3c, 0x70, 0x6f, 0xc6,
    0xbd, 0x3c, 0x35, 0xc2, 0x3d, 0xa8, 0xbb, 0x14, 0x3d, 0xd9, 0x1e, 0x86, 0xbe,
    0x71, 0x72, 0x65, 0xbe, 0x3d, 0x3c, 0x05, 0xbe, 0x69, 0x2b, 0x54, 0xbd, 0x25,
    0xed, 0xa6, 0x3e, 0xb5, 0x77, 0xf0, 0x3c, 0x76, 0xcb, 0x03, 0x3e, 0xa9, 0x22,
    0x9a, 0x3d, 0x9a, 0x33, 0xcd, 0xbd, 0xbc, 0xc3, 0x04, 0x3e, 0xcf, 0x31, 0x99,
    0x3d, 0xd4, 0xc3, 0x90, 0x3e, 0xba, 0x09, 0xc7, 0x39, 0x35, 0x5c, 0x93, 0xbe,
    0x10, 0x4c, 0xfa, 0xbd, 0xb0, 0x4e, 0xa0, 0x3e, 0x0b, 0x61, 0x14, 0x3e, 0x88,
    0x81, 0xa7, 0xbe, 0xa9, 0xf4, 0xb6, 0x3e, 0xdb, 0xa8, 0x28, 0x3e, 0x43, 0xca,
    0xb6, 0x3f, 0x51, 0xbb, 0x08, 0xbf, 0xd0, 0x61, 0x2f, 0x3f, 0x2d, 0xd3, 0x17,
    0x3e, 0xa3, 0x23, 0xe6, 0x3e, 0xd3, 0x8e, 0x3b, 0x3e, 0xc4, 0x4b, 0x88, 0x3e,
    0x78, 0x52, 0x9d, 0x3e, 0x39, 0xb8, 0xe4, 0x3e, 0x91, 0x37, 0x7c, 0x3e, 0xa4,
    0x39, 0x57, 0x3d, 0x6e, 0xa1, 0x16, 0x3e, 0x70, 0x20, 0x91, 0x3e, 0x33, 0x84,
    0x99, 0x3e, 0xef, 0x70, 0xde, 0x3e, 0x1c, 0xb2, 0xff, 0xbe, 0x44, 0x6a, 0x00,
    0xbe, 0x8d, 0xe7, 0x29, 0x3d, 0x27, 0xeb, 0xdc, 0xbd, 0xff, 0x61, 0xd9, 0x3d,
    0x57, 0x50, 0x0f, 0x3e, 0xb4, 0x65, 0x3b, 0x3e, 0x54, 0x7d, 0x2b, 0x3c, 0xad,
    0x33, 0xc2, 0x3d, 0x7d, 0x9b, 0xd7, 0xbe, 0x79, 0x4e, 0xc5, 0x3d, 0xc6, 0x10,
    0xd2, 0xbe, 0xd8, 0x4a, 0x61, 0x3e, 0x6d, 0xed, 0x32, 0x3d, 0xe3, 0x59, 0xb7,
    0xbe, 0x7f, 0x3b, 0x32, 0xbe, 0x9c, 0xca, 0x41, 0xbe, 0xc9, 0xb6, 0x76, 0xbe,
    0x13, 0xe4, 0xc8, 0xbd, 0x91, 0x0f, 0xa9, 0xbe, 0x9e, 0x2c, 0x3f, 0x3e, 0xab,
    0x40, 0x5a, 0xbe, 0x6d, 0xe5, 0x3a, 0x3e, 0xb6, 0x00, 0x89, 0xbe, 0x83, 0x08,
    0x2a, 0x3d, 0xb5, 0x9f, 0xc5, 0xbc, 0xe7, 0xf1, 0x2c, 0xbd, 0x34, 0x43, 0x7d,
    0xbe, 0xf0, 0x66, 0x1a, 0xbf, 0x91, 0x37, 0x38, 0x3f, 0x88, 0x2e, 0x01, 0xbe,
    0x86, 0x31, 0xd2, 0x3d, 0x84, 0x2b, 0x0f, 0xbe, 0xe4, 0x64, 0x9a, 0x3e, 0xbe,
    0xbf, 0x05, 0x3d, 0x5a, 0x89, 0x1e, 0x3e, 0x5e, 0x4a, 0x4d, 0xbe, 0xa1, 0xfa,
    0x53, 0x3e, 0x62, 0x7b, 0x4e, 0xbf, 0x6b, 0x02, 0xb5, 0xbe, 0xf9, 0x5d, 0x17,
    0x3f, 0x03, 0xe9, 0xc7, 0x3e, 0x99, 0xfe, 0xa5, 0x3e, 0x5a, 0x40, 0x5f, 0xbe,
    0x14, 0x70, 0xc1, 0x3e, 0xd1, 0x43, 0x94, 0x3e, 0x4c, 0x0a, 0x25, 0xbf, 0x83,
    0x7c, 0x1e, 0x3f, 0x8c, 0xb7, 0x95, 0xbd, 0xe8, 0xbb, 0x26, 0xbf, 0xe8, 0xc1,
    0xe2, 0x3e, 0x33, 0xfc, 0x94, 0x3f, 0x13, 0x70, 0xf3, 0x3e, 0x21, 0xb2, 0xdd,
    0xbf, 0xd7, 0x11, 0x14, 0x3f, 0xea, 0xda, 0xef, 0x3f, 0x92, 0x17, 0x8d, 0x3f,
    0x89, 0xbd, 0x7f, 0x3f, 0xda, 0x49, 0x81, 0xbe, 0x1e, 0x91, 0x74, 0xbe, 0x25,
    0xf7, 0xcf, 0x3e, 0xc8, 0x13, 0x75, 0xbd, 0x29, 0x36, 0x2d, 0x3d, 0x4e, 0x1f,
    0x1f, 0xbe, 0x87, 0x82, 0x1d, 0x3d, 0xf6, 0x2d, 0xba, 0x3d, 0x0b, 0x56, 0xa6,
    0xbe, 0x88, 0xe8, 0x04, 0xbd, 0x59, 0x20, 0xe7, 0xbd, 0x01, 0x97, 0x6f, 0x3e,
    0x6a, 0x0d, 0xab, 0xbb, 0x82, 0xe6, 0x94, 0x3d, 0x30, 0x3d, 0x75, 0xbd, 0x54,
    0x58, 0xa3, 0xbd, 0xeb, 0xf0, 0x73, 0xbd, 0xf9, 0x6d, 0x0c, 0x3e, 0xa8, 0x42,
    0x6a, 0xbe, 0x8c, 0x65, 0x5b, 0xbe, 0x9c, 0x63, 0x45, 0x3e, 0x95, 0x15, 0x25,
    0x3e, 0x72, 0x88, 0xcb, 0xbe, 0xab, 0x83, 0xc5, 0xbd, 0x11, 0x39, 0x30, 0x3f,
    0xd0, 0xba, 0x3f, 0xbf, 0x4a, 0x41, 0x05, 0xbf, 0x92, 0x2f, 0x05, 0x40, 0xa3,
    0xdc, 0xe2, 0xbd, 0x4c, 0x99, 0x10, 0x40, 0x64, 0xb5, 0x91, 0xbe, 0x7b, 0x49,
    0xc4, 0xbd, 0x6b, 0xee, 0x50, 0xbf, 0x99, 0xf3, 0xe6, 0x3e, 0x0e, 0xd8, 0x69,
    0xbf, 0x3b, 0x4d, 0x6e, 0x3f, 0x60, 0xc4, 0x07, 0xbe, 0xdb, 0x6a, 0x7c, 0xbf,
    0x12, 0xf6, 0xb8, 0xbe, 0x27, 0xb8, 0xb5, 0xbe, 0x88, 0x6b, 0xb2, 0xbd, 0x53,
    0xb3, 0x92, 0xbe, 0xf1, 0xca, 0x86, 0x3e, 0x0b, 0x8a, 0x60, 0x3c, 0x30, 0x6d,
    0xc2, 0x3c, 0x04, 0x78, 0x02, 0xbe, 0x08, 0xa8, 0x64, 0xbc, 0xef, 0x95, 0x64,
    0x3e, 0x06, 0x1c, 0x28, 0xbe, 0x08, 0x73, 0x9d, 0xbd, 0x2c, 0xfc, 0xa5, 0xbe,
    0x60, 0x35, 0xec, 0xbd, 0x08, 0xae, 0x80, 0xba, 0xa3, 0x32, 0xb5, 0x3e, 0xfc,
    0x22, 0x2e, 0xbd, 0x74, 0x71, 0x1a, 0xbd, 0x0e, 0x08, 0x1a, 0x3e, 0xc9, 0xcc,
    0x08, 0x3e, 0x78, 0x6c, 0x7c, 0xbe, 0xd8, 0x8d, 0xc4, 0xbd, 0xe7, 0xeb, 0xb0,
    0xbc, 0xf2, 0xe5, 0x91, 0x3b, 0x07, 0x38, 0xbc, 0x3e, 0xa0, 0x27, 0x8c, 0x3e,
    0x79, 0x43, 0x0d, 0xbe, 0x62, 0xaf, 0xad, 0x3e, 0x53, 0x08, 0xc5, 0xbd, 0xf8,
    0xb6, 0xc8, 0xbe, 0x01, 0x8b, 0x4e, 0xbe, 0x60, 0x92, 0x8d, 0xbe, 0xaf, 0xd6,
    0x08, 0x3e, 0x91, 0x26, 0xd7, 0x3e, 0x32, 0x1d, 0xf6, 0xbd, 0xe6, 0x26, 0xea,
    0x3c, 0x5a, 0xa2, 0xe7, 0xbd, 0x29, 0x7e, 0x88, 0x3e, 0x9d, 0xd7, 0x87, 0x3e,
    0xd2, 0x5e, 0xa7, 0x3e, 0xe7, 0xb5, 0x89, 0x3e, 0xae, 0xdc, 0x70, 0xbe, 0xc8,
    0x77, 0xd1, 0x3d, 0x60, 0x45, 0x8d, 0x3c, 0x54, 0x14, 0x78, 0xbf, 0xfb, 0x72,
    0xc3, 0xbd, 0xac, 0xf6, 0x00, 0x3e, 0x87, 0x17, 0x20, 0x3e, 0xec, 0x3c, 0x8e,
    0xbb, 0xe4, 0xf3, 0xe0, 0xbd, 0x43, 0xe5, 0x80, 0x3e, 0xf6, 0x78, 0x1b, 0x3e,
    0x94, 0x3d, 0xb4, 0x3e, 0x4a, 0x7d, 0xa1, 0xbe, 0x78, 0xec, 0xec, 0xbc, 0x49,
    0x0f, 0x1b, 0xbf, 0x3a, 0x97, 0xb0, 0x3d, 0xf7, 0xa0, 0xaa, 0x3d, 0x2a, 0xe5,
    0x26, 0xbf, 0x3b, 0x7a, 0xb0, 0xbe, 0xea, 0xff, 0x12, 0x3f, 0x69, 0x54, 0xd8,
    0xbc, 0xdc, 0xf9, 0x18, 0x3f, 0xe1, 0xb2, 0x88, 0x3e, 0x02, 0xc2, 0xd1, 0xbd,
    0x8f, 0x28, 0x8a, 0xbe, 0x92, 0x2d, 0x9b, 0xbe, 0xde, 0xdb, 0xf3, 0x3e, 0x69,
    0x01, 0x81, 0xbe, 0x5f, 0xc7, 0x14, 0xbf, 0xcb, 0xc7, 0x14, 0xbe, 0x9e, 0x5d,
    0xbe, 0xbe, 0x31, 0xb8, 0x96, 0x3d, 0x8d, 0x20, 0x0d, 0x3f, 0xf9, 0x6e, 0x56,
    0xbb, 0xa3, 0xd5, 0x20, 0xbf, 0xd5, 0xc1, 0xb2, 0xbd, 0x17, 0xdb, 0xb5, 0x3e,
    0x71, 0x27, 0xc4, 0xbe, 0xdb, 0x01, 0x19, 0x3f, 0xfe, 0xaf, 0x82, 0xbf, 0x91,
    0x29, 0x0c, 0xbf, 0x1a, 0xaf, 0xe1, 0x3e, 0x13, 0xf6, 0x08, 0x3f, 0xd8, 0xe9,
    0x3d, 0xbf, 0x98, 0x01, 0x98, 0xbe, 0x6d, 0xd5, 0x76, 0xbe, 0x45, 0x96, 0x27,
    0x3d, 0xb3, 0x20, 0xeb, 0x3c, 0xf3, 0x62, 0x02, 0x3e, 0x00, 0x6a, 0xc0, 0x3e,
    0x99, 0x7a, 0x04, 0x3d, 0xa3, 0x59, 0x67, 0x3d, 0x2b, 0xd2, 0x18, 0xbd, 0x69,
    0xc3, 0x35, 0xbd, 0x58, 0x1b, 0xe0, 0xbe, 0x2c, 0xa0, 0x96, 0xbd, 0x73, 0xf7,
    0x4e, 0x3e, 0x8f, 0x71, 0x08, 0xbf, 0xe1, 0x4d, 0x89, 0xbe, 0xe8, 0xd8, 0xf5,
    0xbd, 0xb6, 0x45, 0x09, 0xbe, 0xc2, 0x17, 0xeb, 0x3e, 0x7c, 0xa4, 0x1b, 0x3e,
    0x3b, 0x09, 0x47, 0xbf, 0x93, 0x44, 0xfc, 0xbe, 0xc8, 0x70, 0x65, 0xbb, 0x37,
    0xd6, 0x06, 0x3d, 0x37, 0x02, 0xe4, 0x3d, 0xef, 0xd9, 0xc2, 0x3e, 0x24, 0xde,
    0xce, 0x3e, 0x8b, 0x5f, 0xb7, 0x3e, 0x0a, 0x62, 0x23, 0x3d, 0x90, 0xde, 0xaa,
    0xbe, 0xf4, 0x63, 0x13, 0x3e, 0x43, 0x05, 0x53, 0xbf, 0x7c, 0x5b, 0x18, 0x3e,
    0xc7, 0x22, 0x92, 0x3e, 0x8e, 0x12, 0x06, 0xbf, 0x0d, 0x89, 0x97, 0xbe, 0x6d,
    0x5c, 0x63, 0x3c, 0x32, 0xf9, 0x8a, 0xbe, 0xf3, 0x67, 0xcd, 0x3e, 0xc7, 0xa0,
    0xa3, 0xbf, 0xaf, 0xc5, 0x5f, 0xbf, 0xab, 0xa7, 0x63, 0x3f, 0xfc, 0xdc, 0x43,
    0x3e, 0x91, 0xc9, 0x12, 0xbe, 0x7e, 0xfd, 0x51, 0xbf, 0xcd, 0x77, 0xed, 0xbf,
    0x1f, 0x90, 0xbe, 0x3e, 0xb0, 0xe9, 0x5d, 0xbf, 0xca, 0x25, 0x71, 0xbe, 0x2a,
    0x38, 0x01, 0x40, 0x80, 0x6e, 0x93, 0xbe, 0x65, 0x06, 0xdd, 0xbe, 0x2d, 0x73,
    0xe6, 0xbe, 0xf0, 0x01, 0x88, 0x3e, 0xce, 0xfd, 0xd4, 0x3e, 0x90, 0xdb, 0xdc,
    0xbe, 0x89, 0x14, 0x95, 0xbe, 0xda, 0xf6, 0x68, 0xbd, 0xef, 0x92, 0x03, 0x3e,
    0x26, 0x4f, 0x99, 0x3f, 0xa9, 0x21, 0x96, 0xbd, 0x20, 0xfd, 0x14, 0xbd, 0x7b,
    0x6a, 0xf1, 0xbc, 0x3e, 0x27, 0x2c, 0x3f, 0xcd, 0x9f, 0x4c, 0xbf, 0x0c, 0x25,
    0xfa, 0xbd, 0xdf, 0x0c, 0x24, 0x3f, 0x43, 0x39, 0x08, 0x3f, 0xe0, 0x9c, 0xfa,
    0xbd, 0xe4, 0x23, 0xcf, 0xbe, 0xd1, 0x87, 0x44, 0xbf, 0xf7, 0x09, 0x4f, 0xbf,
    0x78, 0x83, 0xbf, 0xbe, 0xe4, 0x91, 0x65, 0x3e, 0xb5, 0x5d, 0x2b, 0xbf, 0xe2,
    0x53, 0x7a, 0x3f, 0x75, 0xfc, 0x65, 0xbf, 0x70, 0x74, 0x6c, 0xbe, 0x3b, 0xaf,
    0x01, 0xc0, 0xd8, 0x9b, 0xa1, 0xbf, 0x72, 0x86, 0x24, 0x40, 0xbd, 0x54, 0x5d,
    0x3f, 0x5e, 0x4f, 0x05, 0x3f, 0x0a, 0x74, 0x44, 0xbe, 0xc3, 0xa2, 0x0c, 0xbe,
    0x39, 0x33, 0x5f, 0xbe, 0x43, 0xf0, 0x82, 0xbf, 0x46, 0xbb, 0x96, 0x3e, 0x0f,
    0xbc, 0x0c, 0xbf, 0x9d, 0x5a, 0x8f, 0x3f, 0x46, 0x5b, 0xb4, 0xbe, 0x3c, 0xe8,
    0x1f, 0x40, 0x66, 0x1e, 0xf4, 0xbd, 0x84, 0x73, 0x16, 0x3f, 0x37, 0x04, 0xd1,
    0x3f, 0xe4, 0x62, 0x67, 0x3f, 0x9f, 0x95, 0x77, 0x40, 0x88, 0x43, 0x03, 0x40,
    0x2b, 0x07, 0xa6, 0xbd, 0xa7, 0xd2, 0x73, 0x3e, 0x0f, 0x53, 0x68, 0xbf, 0xc7,
    0xa8, 0x93, 0xbd, 0x0b, 0x50, 0x81, 0xbe, 0x74, 0xbc, 0x62, 0xbe, 0x46, 0x47,
    0xd6, 0xbe, 0x17, 0xef, 0x10, 0x3d, 0xa6, 0x2e, 0x4b, 0x3e, 0x36, 0x71, 0xb7,
    0xbd, 0x6d, 0x5c, 0x81, 0xbd, 0x1a, 0xf4, 0x7d, 0x3f, 0xf1, 0x8e, 0x35, 0xbd,
    0xb5, 0x9e, 0x25, 0xbf, 0xfe, 0xfd, 0x9e, 0xbe, 0x2d, 0x0d, 0x82, 0x3e, 0x54,
    0x54, 0xbb, 0xbe, 0x4c, 0x59, 0xbe, 0xbe, 0xb3, 0x3e, 0x63, 0xbe, 0xb0, 0x8e,
    0x09, 0xbf, 0xe7, 0x5b, 0x19, 0xbd, 0x88, 0x30, 0x01, 0x3d, 0x87, 0x94, 0x5c,
    0xbf, 0x7b, 0x3d, 0x33, 0x3e, 0x1f, 0x42, 0xad, 0xbe, 0x25, 0x03, 0x8c, 0x3e,
    0x7c, 0xdd, 0xf3, 0xbe, 0x9d, 0xc4, 0x90, 0xbe, 0x4f, 0xa0, 0x3b, 0x3e, 0x9e,
    0x48, 0x06, 0xbf, 0xeb, 0x70, 0xb2, 0xbe, 0x81, 0xb0, 0x0b, 0xbe, 0x1d, 0xd2,
    0xc0, 0xbe, 0x92, 0xdc, 0x2e, 0xbe, 0x57, 0xc9, 0x32, 0xbe, 0xca, 0xa7, 0x0b,
    0x3f, 0x05, 0xf1, 0x95, 0x3e, 0x54, 0x8c, 0xc7, 0xbe, 0x0c, 0x9e, 0x80, 0xb9,
    0x36, 0x43, 0x3f, 0xbe, 0x71, 0x42, 0xa9, 0xbe, 0x0b, 0x3d, 0xa5, 0x3d, 0xb1,
    0x2b, 0xbd, 0xbe, 0x21, 0x4a, 0xb0, 0x3e, 0xcf, 0xf8, 0x90, 0x3e, 0x33, 0xe4,
    0x06, 0xbf, 0x78, 0x9e, 0x59, 0xbf, 0x7a, 0x30, 0x2b, 0xbf, 0x1d, 0xa5, 0x53,
    0x3e, 0xec, 0x90, 0x05, 0xbf, 0x53, 0xf1, 0xe2, 0xbd, 0x63, 0x1a, 0x06, 0x3f,
    0xf5, 0x28, 0x3d, 0xbf, 0xda, 0xd1, 0x6f, 0xbe, 0xbb, 0x58, 0x1f, 0xbf, 0x1f,
    0x2d, 0x22, 0x3f, 0x64, 0xcf, 0x43, 0xbd, 0x74, 0x30, 0x0c, 0xbf, 0x47, 0x98,
    0x03, 0x3d, 0x91, 0x4e, 0x22, 0xbe, 0x12, 0xe9, 0x82, 0xbe, 0x93, 0x6d, 0xae,
    0xbd, 0xbc, 0xe5, 0x15, 0xbf, 0xcd, 0x9d, 0xee, 0x3b, 0x31, 0x1f, 0x91, 0xbe,
    0x8c, 0xb3, 0xc9, 0x3d, 0x47, 0x3c, 0x57, 0xbe, 0xb2, 0x46, 0xcd, 0xbd, 0x7c,
    0xd4, 0xa2, 0xbd, 0xb0, 0xad, 0x79, 0xbe, 0xcf, 0x21, 0xc5, 0xbe, 0xb9, 0xc9,
    0x5e, 0xbc, 0x03, 0xa2, 0x03, 0xbe, 0xb4, 0x23, 0xc1, 0xbd, 0x22, 0x6a, 0x9b,
    0xbe, 0xd6, 0x52, 0x0d, 0x3e, 0xfc, 0x14, 0x37, 0xbe, 0x8d, 0x63, 0x4c, 0xbe,
    0x05, 0x91, 0x93, 0x3d, 0x51, 0x62, 0xa9, 0xbe, 0xd7, 0xb4, 0x64, 0x3f, 0x4a,
    0xfb, 0x46, 0x3f, 0x85, 0x70, 0xc1, 0xbe, 0xe5, 0xcc, 0x10, 0xbf, 0xba, 0xd4,
    0x66, 0xbd, 0x99, 0x98, 0xc1, 0x3e, 0xdc, 0x51, 0x34, 0xbf, 0x39, 0xaf, 0x80,
    0x3f, 0x14, 0x98, 0xba, 0x3f, 0x22, 0x58, 0xb8, 0xbf, 0x26, 0xfb, 0x29, 0x3e,
    0x91, 0x38, 0xa9, 0x3f, 0xf6, 0x01, 0x4a, 0xbf, 0x0f, 0xe9, 0x7f, 0xbf, 0xee,
    0x27, 0x1b, 0xbf, 0x3c, 0x0c, 0xcc, 0xbd, 0x04, 0x0a, 0x83, 0xbf, 0xfb, 0x29,
    0x17, 0x40, 0xc5, 0xc5, 0xf2, 0xbe, 0xba, 0xa0, 0x46, 0xbf, 0xfc, 0x03, 0x87,
    0xbf, 0x87, 0x53, 0x72, 0xbf, 0xc7, 0x00, 0x93, 0xbf, 0x50, 0x76, 0x5c, 0x3f,
    0x62, 0xc0, 0x55, 0x3e, 0x60, 0xd4, 0x3a, 0xbe, 0xf6, 0x24, 0xfa, 0xbe, 0x6a,
    0xc0, 0xc2, 0xbf, 0x74, 0x4e, 0x3a, 0x40, 0x0a, 0xce, 0x23, 0xc0, 0x14, 0x09,
    0x65, 0xbe, 0x5e, 0x99, 0x60, 0x3f, 0x3b, 0x18, 0x18, 0xbf, 0x4a, 0x80, 0x08,
    0x40, 0x30, 0x4b, 0xe6, 0xbe, 0x5e, 0xe8, 0x87, 0xbe, 0x4f, 0x12, 0x95, 0x3f,
    0xb8, 0xd2, 0x19, 0xbd, 0x13, 0x78, 0x0f, 0x40, 0xfb, 0x81, 0xfc, 0x3f, 0x5e,
    0x62, 0x85, 0x3f, 0xc2, 0x0c, 0x73, 0x3f, 0x90, 0x06, 0x9d, 0xbf, 0x31, 0xc7,
    0x15, 0xbf, 0x3d, 0xdc, 0xbd, 0xbe, 0xb8, 0x14, 0x49, 0x3e, 0x0a, 0x0b, 0x1f,
    0xbf, 0x01, 0xe2, 0x4f, 0xbf, 0x2c, 0x3b, 0x35, 0x3f, 0xce, 0xb6, 0x1a, 0x40,
    0x70, 0xa0, 0x5b, 0xbd, 0x32, 0xea, 0x3a, 0xc0, 0x1c, 0xc8, 0xe2, 0xbe, 0x31,
    0x63, 0xf7, 0xbf, 0x1f, 0x70, 0x12, 0xbf, 0x9f, 0x76, 0x63, 0xbf, 0x50, 0x66,
    0x8e, 0xbf, 0x8b, 0x63, 0x87, 0xbe, 0x91, 0x84, 0xff, 0xbf, 0xfe, 0x2b, 0xaa,
    0xbf, 0x3a, 0x41, 0xc7, 0xbe, 0xd7, 0x74, 0xb0, 0xbc, 0x65, 0xce, 0x80, 0xbe,
    0x3b, 0xfe, 0x35, 0x3f, 0xe3, 0x13, 0x3b, 0x3d, 0x4f, 0xe3, 0x87, 0xbd, 0xed,
    0x9a, 0x8b, 0xbf, 0x28, 0xc4, 0x56, 0xbf, 0x64, 0xce, 0xd1, 0x3e, 0x32, 0x2b,
    0x12, 0xbf, 0x2e, 0x89, 0x9f, 0xbe, 0x4e, 0xdf, 0x68, 0x3e, 0x33, 0xae, 0x85,
    0xbf, 0x7e, 0xb0, 0x89, 0xbd, 0xad, 0xcd, 0x8d, 0xbf, 0x11, 0xf1, 0x4a, 0x3f,
    0xd2, 0x91, 0x0a, 0x3e, 0x6a, 0x47, 0x4e, 0xbf, 0xd2, 0xe1, 0xf2, 0xbc, 0xb6,
    0xa8, 0x4d, 0xbe, 0x3d, 0x76, 0xd2, 0xbe, 0x08, 0x25, 0xa4, 0x3e, 0x89, 0xd9,
    0x91, 0xbe, 0x22, 0x8d, 0x2d, 0x3d, 0x0f, 0xc7, 0xa3, 0xbf, 0x33, 0x39, 0x41,
    0x3e, 0x11, 0x2c, 0xf0, 0xbf, 0x01, 0xb5, 0x10, 0x3f, 0x42, 0x26, 0xa0, 0xbe,
    0x2d, 0xc6, 0x4f, 0x3f, 0xc7, 0x37, 0x46, 0xbe, 0xe1, 0x6c, 0xe0, 0x3f, 0xcb,
    0x5b, 0x1d, 0xc0, 0x45, 0x0b, 0x15, 0x40, 0xee, 0xa5, 0x15, 0xc0, 0x10, 0x91,
    0x58, 0x40, 0x7f, 0xa6, 0x93, 0x3e, 0x78, 0x55, 0x1c, 0xc0, 0x54, 0x15, 0xba,
    0x3f, 0x1d, 0xf0, 0x04, 0x3f, 0x74, 0xce, 0x26, 0xbe, 0x9e, 0x39, 0x42, 0xbd,
    0xa2, 0xf7, 0xec, 0xbb, 0xe3, 0x27, 0xcf, 0x3e, 0x97, 0x61, 0xb1, 0xbe, 0xa3,
    0x2a, 0x21, 0xbe, 0xf4, 0x1a, 0xea, 0xbe, 0xed, 0x22, 0x80, 0xbe, 0x45, 0x4d,
    0x1b, 0x3d, 0x6c, 0x12, 0x5b, 0xbe, 0x7c, 0x33, 0x94, 0xbe, 0x49, 0xa6, 0xfc,
    0x3d, 0x7d, 0xc2, 0xc9, 0xbe, 0xf9, 0x00, 0x0f, 0xbd, 0x28, 0xde, 0x9f, 0xbe,
    0x9a, 0xc6, 0xac, 0x3e, 0xce, 0x8b, 0xc0, 0x3e, 0x96, 0x02, 0xc0, 0x3c, 0xfe,
    0xd9, 0x86, 0xbd, 0x2f, 0xb8, 0x44, 0xbe, 0xf9, 0x19, 0x1e, 0xbf, 0xa1, 0x41,
    0xc5, 0xbd, 0x34, 0xd2, 0x85, 0xbf, 0x1d, 0x48, 0x19, 0x3f, 0x0c, 0x4e, 0x38,
    0x3f, 0x4e, 0x6b, 0x24, 0xbf, 0xda, 0x1a, 0x31, 0xbf, 0x02, 0x86, 0x1d, 0xbf,
    0x61, 0x1a, 0xd8, 0x3e, 0x6e, 0x6c, 0xf2, 0xbe, 0xc2, 0x28, 0x8d, 0x3d, 0xbb,
    0xfa, 0xe3, 0x3e, 0x3c, 0x8d, 0x30, 0xbf, 0x7d, 0x1d, 0x02, 0xbf, 0xea, 0xdb,
    0xe1, 0xbe, 0x8d, 0xcb, 0x38, 0x3f, 0x51, 0x10, 0xa2, 0x3d, 0x3c, 0xc8, 0x17,
    0xbf, 0x33, 0xf9, 0x30, 0x3e, 0xd6, 0x06, 0x43, 0xbe, 0xe8, 0x3d, 0xda, 0xbe,
    0x8b, 0xf8, 0x2a, 0xbe, 0x59, 0xca, 0x60, 0xbe, 0xde, 0x25, 0x17, 0x3e, 0x18,
    0xa2, 0x2f, 0xbe, 0x31, 0xd2, 0xac, 0xbd, 0xde, 0x10, 0x1d, 0xbf, 0xae, 0x46,
    0xda, 0xbe, 0x25, 0x72, 0x8a, 0xbe, 0xbc, 0xd0, 0xb0, 0xbe, 0x5f, 0x2a, 0x0a,
    0xbf, 0x9c, 0xdc, 0xb8, 0x3e, 0x53, 0xb7, 0xbb, 0xbe, 0xd4, 0x3d, 0x3b, 0x3e,
    0xcc, 0x6c, 0xb6, 0xbe, 0x2f, 0xcd, 0xaa, 0x3e, 0xad, 0x96, 0xc4, 0x3e, 0xf4,
    0x10, 0x6c, 0xbe, 0x2b, 0x08, 0xaa, 0xbe, 0x50, 0xd9, 0x3e, 0xbe, 0x9e, 0x7a,
    0x0d, 0x40, 0x1f, 0x7e, 0xe5, 0x3f, 0x18, 0xf1, 0x11, 0xbf, 0x8b, 0x79, 0xaf,
    0xbf, 0xe8, 0x59, 0x77, 0x3e, 0x02, 0x4b, 0xa7, 0x3e, 0x0d, 0x12, 0x00, 0xbf,
    0x71, 0x50, 0xc6, 0xbf, 0xfe, 0xad, 0xfb, 0x3f, 0x55, 0xf2, 0x5f, 0xbf, 0x28,
    0x91, 0x62, 0xbe, 0x92, 0x28, 0x68, 0xbf, 0x9e, 0xbc, 0xc0, 0xbe, 0x09, 0xd9,
    0x87, 0xc0, 0x24, 0x42, 0x6e, 0xbe, 0xfd, 0xac, 0xb5, 0xbf, 0x1a, 0xc4, 0x05,
    0xc0, 0xd9, 0x33, 0x55, 0xbf, 0x70, 0xea, 0x89, 0xc0, 0x70, 0x09, 0x4b, 0xc0,
    0x8f, 0xcf, 0x8e, 0xbe, 0x2a, 0x41, 0x24, 0xbf, 0xea, 0x8c, 0x03, 0xc0, 0xce,
    0xb1, 0x2e, 0x3f, 0x8e, 0x62, 0xe1, 0xbd, 0xa8, 0xdd, 0xbf, 0xbe, 0xfa, 0x68,
    0x18, 0xbf, 0x8c, 0x58, 0x23, 0xbd, 0xbe, 0x7d, 0xd5, 0xbe, 0xa3, 0xec, 0x82,
    0xbf, 0x20, 0x22, 0xcc, 0xbe, 0xe8, 0x93, 0x9e, 0x3f, 0x5b, 0xea, 0x37, 0xbf,
    0xec, 0xdf, 0x6d, 0xbf, 0x53, 0xea, 0xfa, 0xbe, 0x68, 0xb7, 0xe5, 0x3e, 0x3e,
    0x16, 0xd1, 0xbd, 0x6f, 0x15, 0x90, 0xbe, 0xc0, 0xc9, 0x14, 0xbf, 0x44, 0x03,
    0x72, 0x3e, 0x78, 0x46, 0x3e, 0xbf, 0xca, 0x86, 0x22, 0xbf, 0xd7, 0xc6, 0x9e,
    0x3f, 0xd5, 0xab, 0x5f, 0x3f, 0xb8, 0x88, 0xbf, 0xbd, 0x93, 0xb1, 0xa4, 0x3d,
    0x60, 0x1c, 0x34, 0xbc, 0x54, 0x58, 0x24, 0xbf, 0xa1, 0xc2, 0xe4, 0xbf, 0x42,
    0x68, 0x28, 0xbf, 0xc9, 0x33, 0xa9, 0xbe, 0xf7, 0x12, 0xf5, 0xbe, 0x9c, 0x30,
    0xfa, 0xbd, 0xf6, 0x41, 0x98, 0x3f, 0x77, 0xd6, 0x33, 0xbe, 0xa4, 0x0c, 0xf2,
    0xbe, 0xeb, 0x7e, 0x81, 0x3f, 0x99, 0xb8, 0x83, 0x3e, 0x7c, 0x7e, 0xd9, 0x3f,
    0x9a, 0x00, 0x73, 0x3f, 0xfa, 0x7b, 0x10, 0xbf, 0xc5, 0x42, 0x4b, 0x3e, 0x24,
    0x5e, 0xa5, 0x3e, 0x97, 0x78, 0xdb, 0x3e, 0x85, 0xee, 0x63, 0x3d, 0xa2, 0x66,
    0xc9, 0xbe, 0x6f, 0x7b, 0x01, 0xbf, 0x7c, 0x9d, 0x29, 0x3f, 0xb7, 0x3e, 0x49,
    0xbf, 0x22, 0x88, 0x08, 0x40, 0xc9, 0x64, 0xa6, 0xbe, 0xdd, 0x62, 0x92, 0xbe,
    0x64, 0x7b, 0xdc, 0xbe, 0x7f, 0x56, 0xa1, 0xbf, 0x98, 0xd6, 0xe5, 0xbe, 0x86,
    0x35, 0xab, 0x3c, 0x87, 0x93, 0x2a, 0x3f, 0xff, 0xef, 0x62, 0x3f, 0x95, 0x80,
    0xcf, 0xbf, 0x6d, 0x76, 0xb7, 0x3e, 0x5b, 0x45, 0x26, 0xbd, 0x50, 0x0d, 0x06,
    0xbf, 0x57, 0x69, 0x17, 0x3f, 0x60, 0xa0, 0x82, 0x3e, 0x48, 0xf9, 0xda, 0xbe,
    0xdb, 0x5b, 0x36, 0x3d, 0xdd, 0xf9, 0xb2, 0xbd, 0xa8, 0x0e, 0xe7, 0x3e, 0x90,
    0x2e, 0x0e, 0xbf, 0x16, 0x98, 0x99, 0xbf, 0x16, 0x2c, 0xec, 0x3d, 0x0f, 0xc2,
    0x0f, 0xbf, 0xb4, 0x45, 0xc3, 0xbe, 0x91, 0x42, 0x98, 0x3f, 0x28, 0x6d, 0xe0,
    0xbc, 0x3f, 0x10, 0x16, 0xbd, 0x1f, 0x1a, 0xfc, 0x3d, 0xd8, 0xa6, 0x92, 0x3e,
    0x1c, 0x25, 0xc9, 0x3f, 0xac, 0xb5, 0x52, 0x3f, 0x9e, 0x7f, 0xff, 0xff, 0x04,
    0x00, 0x00, 0x00, 0x40, 0x01, 0x00, 0x00, 0x2c, 0x6d, 0x0f, 0x3d, 0x89, 0xbd,
    0xc3, 0x3d, 0x21, 0xfd, 0xe0, 0x3c, 0xc2, 0x5b, 0x95, 0x3e, 0xbc, 0x50, 0xe2,
    0xbe, 0x66, 0x85, 0x98, 0xbe, 0xa8, 0x11, 0x59, 0xbe, 0x40, 0xfb, 0x73, 0x3e,
    0xcf, 0xd9, 0x9a, 0xbc, 0x08, 0xa4, 0xcc, 0x3e, 0x38, 0xd6, 0x04, 0xbf, 0x65,
    0x4a, 0x02, 0xbd, 0x7f, 0xd4, 0xab, 0xbe, 0x76, 0x11, 0x19, 0x3c, 0x59, 0x48,
    0x9d, 0xbe, 0x80, 0xd0, 0x5b, 0x3a, 0x26, 0x99, 0x96, 0x3c, 0x39, 0xbf, 0x2c,
    0x3d, 0xaf, 0xff, 0x35, 0xba, 0x62, 0x39, 0x1a, 0x3c, 0xc4, 0xec, 0xa4, 0xbe,
    0xfb, 0xe9, 0xe8, 0xbe, 0x6a, 0xa1, 0xcd, 0xbe, 0xe2, 0x62, 0x1d, 0x3e, 0x98,
    0x23, 0x16, 0xbe, 0x37, 0x71, 0x9a, 0x3d, 0xe1, 0x9d, 0x9e, 0xbd, 0x24, 0xa4,
    0x2b, 0xbf, 0x95, 0x69, 0x62, 0x3d, 0x45, 0x14, 0x35, 0x3c, 0xef, 0xb7, 0x89,
    0xbe, 0xd6, 0x1e, 0x86, 0xbe, 0x27, 0xd3, 0x0d, 0xbe, 0x12, 0x91, 0xda, 0x3c,
    0x82, 0xcc, 0x67, 0xbe, 0x9a, 0x3b, 0xc9, 0x3c, 0x24, 0xf2, 0xde, 0xbc, 0x87,
    0x4d, 0xae, 0xbe, 0x84, 0x8a, 0x1d, 0x3c, 0x3e, 0x3e, 0x44, 0x3c, 0xca, 0x18,
    0x2a, 0x3d, 0xc7, 0x7b, 0x05, 0x3e, 0x8f, 0xca, 0xb3, 0xbc, 0xfd, 0x16, 0xe1,
    0xbd, 0xb0, 0x99, 0x84, 0xbe, 0x5f, 0xab, 0x4a, 0x3e, 0x45, 0x74, 0x78, 0xbe,
    0xca, 0x41, 0xe4, 0x3d, 0x07, 0x85, 0x15, 0x3c, 0x33, 0x7f, 0x7e, 0x3e, 0x94,
    0x17, 0x76, 0x3e, 0x0b, 0x0b, 0x0b, 0x3d, 0x79, 0x37, 0x72, 0xbe, 0x1d, 0x12,
    0x90, 0xbc, 0x02, 0xd9, 0x41, 0xbe, 0x40, 0xad, 0xb0, 0x3d, 0x3a, 0x34, 0x6b,
    0xbd, 0xd0, 0xfd, 0x80, 0xbc, 0xec, 0x05, 0x94, 0xbe, 0x80, 0x64, 0x12, 0xbe,
    0x12, 0xba, 0x14, 0x3d, 0x42, 0x00, 0x16, 0xbc, 0x42, 0x93, 0x89, 0x3d, 0x0e,
    0x8a, 0x9e, 0x3e, 0xc0, 0x97, 0xf4, 0x3c, 0x17, 0x25, 0x9f, 0xbe, 0x97, 0xad,
    0x4b, 0xbe, 0xe6, 0x87, 0x52, 0xbd, 0xd6, 0xbf, 0x15, 0x3d, 0xe1, 0xb3, 0x68,
    0xbd, 0xdf, 0xb7, 0x30, 0x3e, 0x89, 0x05, 0x07, 0x3d, 0xb5, 0xa6, 0xa6, 0x3e,
    0x80, 0xab, 0xd9, 0x3e, 0x3f, 0x33, 0xa2, 0x3e, 0x3b, 0xb7, 0x94, 0xbd, 0x65,
    0xa9, 0x99, 0x3c, 0x7a, 0x6f, 0x0d, 0x3d, 0x6e, 0x15, 0xbe, 0x3c, 0x54, 0x7d,
    0xc1, 0x3d, 0x28, 0x6a, 0xff, 0xff, 0x2c, 0x6a, 0xff, 0xff, 0x30, 0x6a, 0xff,
    0xff, 0x34, 0x6a, 0xff, 0xff, 0x38, 0x6a, 0xff, 0xff, 0x3c, 0x6a, 0xff, 0xff,
    0x40, 0x6a, 0xff, 0xff, 0x44, 0x6a, 0xff, 0xff, 0x48, 0x6a, 0xff, 0xff, 0x4c,
    0x6a, 0xff, 0xff, 0x50, 0x6a, 0xff, 0xff, 0x54, 0x6a, 0xff, 0xff, 0x58, 0x6a,
    0xff, 0xff, 0x5c, 0x6a, 0xff, 0xff, 0x60, 0x6a, 0xff, 0xff, 0x64, 0x6a, 0xff,
    0xff, 0x68, 0x6a, 0xff, 0xff, 0x6c, 0x6a, 0xff, 0xff, 0x70, 0x6a, 0xff, 0xff,
    0x74, 0x6a, 0xff, 0xff, 0x78, 0x6a, 0xff, 0xff, 0x7c, 0x6a, 0xff, 0xff, 0x80,
    0x6a, 0xff, 0xff, 0x84, 0x6a, 0xff, 0xff, 0x88, 0x6a, 0xff, 0xff, 0x8c, 0x6a,
    0xff, 0xff, 0x90, 0x6a, 0xff, 0xff, 0x94, 0x6a, 0xff, 0xff, 0x98, 0x6a, 0xff,
    0xff, 0x9c, 0x6a, 0xff, 0xff, 0xa0, 0x6a, 0xff, 0xff, 0xa4, 0x6a, 0xff, 0xff,
    0xa8, 0x6a, 0xff, 0xff, 0xac, 0x6a, 0xff, 0xff, 0xb0, 0x6a, 0xff, 0xff, 0xb4,
    0x6a, 0xff, 0xff, 0xb8, 0x6a, 0xff, 0xff, 0xbc, 0x6a, 0xff, 0xff, 0x82, 0x81,
    0xff, 0xff, 0x04, 0x00, 0x00, 0x00, 0x40, 0x01, 0x00, 0x00, 0x83, 0xd5, 0xdd,
    0x3f, 0x96, 0x3b, 0x58, 0x3e, 0xa2, 0xfe, 0x2f, 0xbf, 0x1f, 0xd3, 0xd0, 0x3e,
    0x66, 0xf4, 0x87, 0x3f, 0x24, 0xc5, 0x44, 0x3f, 0xfe, 0xfc, 0xac, 0xbf, 0x1e,
    0x08, 0x70, 0xbe, 0xfa, 0x71, 0x1b, 0x40, 0x3b, 0x42, 0x8f, 0x3d, 0x6d, 0xf8,
    0xd7, 0x3f, 0x04, 0x5d, 0x01, 0xc0, 0xf2, 0xd9, 0xc6, 0xbf, 0xe1, 0xd1, 0x11,
    0xbd, 0xea, 0x5a, 0x25, 0x3f, 0xe7, 0xff, 0xcb, 0x3d, 0x6b, 0x4b, 0xe8, 0xbe,
    0xa2, 0x92, 0xc6, 0xbe, 0x6a, 0x51, 0x7e, 0x3e, 0xd1, 0x55, 0x06, 0xbe, 0x29,
    0x60, 0x32, 0xbd, 0x74, 0xd5, 0x09, 0x3f, 0x4b, 0x1d, 0x96, 0x3e, 0x1b, 0xad,
    0x53, 0x3f, 0x6c, 0x65, 0x8f, 0x3f, 0xdd, 0x6a, 0x44, 0x3e, 0x61, 0xdb, 0x7b,
    0x3f, 0x9c, 0x73, 0x38, 0x3f, 0xd6, 0x86, 0xcc, 0x3e, 0x71, 0xdc, 0xb4, 0xbe,
    0x36, 0x67, 0x1c, 0x3f, 0x12, 0xd7, 0x81, 0x3f, 0x55, 0x0a, 0x2d, 0x3e, 0x88,
    0x02, 0x48, 0x3f, 0x6d, 0xa9, 0x1f, 0x40, 0xa8, 0x4f, 0x1e, 0x3f, 0x7d, 0xb0,
    0xad, 0x3d, 0x4c, 0x15, 0xe9, 0x3e, 0xe6, 0xed, 0x9e, 0x3f, 0x47, 0x0b, 0x14,
    0x3f, 0x2a, 0x09, 0x67, 0xbe, 0xb8, 0x25, 0x8e, 0x3d, 0x62, 0xe2, 0xff, 0x3c,
    0x6e, 0xaa, 0xfe, 0x3d, 0x47, 0x34, 0x21, 0xbe, 0xb1, 0x96, 0x8c, 0x3c, 0xd3,
    0xfc, 0x99, 0xbc, 0x28, 0x85, 0x0c, 0x3d, 0x43, 0x0b, 0x33, 0x3c, 0x21, 0x01,
    0xaf, 0x3d, 0x93, 0xe0, 0x1c, 0xbe, 0x8b, 0x80, 0x54, 0x3e, 0xf8, 0x9c, 0x6d,
    0x3c, 0xdc, 0x0f, 0x5c, 0x3e, 0xa1, 0x00, 0x0b, 0x3a, 0xad, 0xc5, 0xea, 0xbe,
    0xf6, 0xb8, 0xa6, 0xbe, 0xce, 0x0e, 0x0f, 0x3e, 0x21, 0x3e, 0x8d, 0x3d, 0xc9,
    0xf7, 0xe4, 0x3d, 0x40, 0x6d, 0x01, 0xc0, 0x2c, 0xce, 0x0f, 0xbf, 0x6e, 0x10,
    0x2b, 0x40, 0x04, 0x9b, 0xa9, 0xbe, 0x21, 0x80, 0x6d, 0xbf, 0xc4, 0x6b, 0xd9,
    0xbe, 0x71, 0x98, 0xff, 0x3f, 0x24, 0xfd, 0x5e, 0xbe, 0xbb, 0x70, 0x39, 0xbf,
    0xf5, 0x3c, 0x02, 0xbf, 0xcf, 0xa6, 0xc6, 0xbe, 0x5e, 0x65, 0xd2, 0xbe, 0x58,
    0x28, 0x02, 0x40, 0xd7, 0xe2, 0xc0, 0x3f, 0xeb, 0x9a, 0xdf, 0xbf, 0xe7, 0xb7,
    0xd7, 0x3d, 0x4b, 0x63, 0x86, 0xbf, 0xeb, 0xf3, 0x04, 0x40, 0x49, 0x17, 0x73,
    0x3f, 0xdf, 0x7c, 0x85, 0x3f, 0xce, 0x82, 0xff, 0xff, 0x04, 0x00, 0x00, 0x00,
    0x00, 0x19, 0x00, 0x00, 0xa8, 0x07, 0x7b, 0x3f, 0x8b, 0x15, 0x85, 0xbe, 0xf5,
    0xb4, 0xc4, 0xbe, 0x6a, 0x88, 0x68, 0xbe, 0x28, 0xa6, 0x33, 0xbd, 0x5d, 0x8e,
    0x9a, 0x3e, 0x3f, 0xe1, 0x51, 0xbf, 0xba, 0xe4, 0xa8, 0x3e, 0x25, 0x13, 0x09,
    0xbe, 0xc4, 0xb9, 0x2e, 0x3c, 0xf6, 0x46, 0x93, 0xbe, 0x93, 0x76, 0x3d, 0xbf,
    0x44, 0x07, 0xba, 0x3e, 0x84, 0x3e, 0x2a, 0xbe, 0xec, 0xe9, 0xa1, 0xbd, 0x62,
    0x2d, 0x39, 0x3f, 0xb3, 0xb4, 0x1e, 0xbf, 0x99, 0xaf, 0x1c, 0xbf, 0xf2, 0x42,
    0xe5, 0x3c, 0x31, 0x73, 0xb9, 0xbf, 0xb2, 0x31, 0xf5, 0x3f, 0xb2, 0x65, 0xb4,
    0xbf, 0x85, 0x7a, 0x0f, 0xc0, 0x37, 0x0d, 0x0b, 0x40, 0xcc, 0x93, 0xcb, 0x3e,
    0x2a, 0x61, 0x4e, 0xbe, 0x1f, 0x32, 0x00, 0xc0, 0x5b, 0x61, 0x17, 0x3e, 0x88,
    0x00, 0xfc, 0x3f, 0xd9, 0xbe, 0x62, 0xbf, 0xdc, 0x3f, 0xf5, 0xbf, 0x22, 0x25,
    0x75, 0x3e, 0x7d, 0xb6, 0xd2, 0xbf, 0xf3, 0x82, 0x47, 0x3e, 0x67, 0xaf, 0x1c,
    0x40, 0x23, 0xeb, 0x90, 0x3e, 0xcd, 0x1c, 0x64, 0x3d, 0x42, 0x2e, 0x42, 0x40,
    0xb4, 0x86, 0x63, 0xbe, 0xbf, 0x02, 0xbd, 0xbf, 0x65, 0xd2, 0x3f, 0x3f, 0x1e,
    0xed, 0x4e, 0xbf, 0x20, 0xf9, 0x02, 0xbf, 0x7c, 0x9a, 0x40, 0xbf, 0xd3, 0xa6,
    0x27, 0x3f, 0x30, 0x09, 0x3d, 0x3f, 0x03, 0xa7, 0x39, 0x3f, 0x05, 0xde, 0x8e,
    0xbd, 0x50, 0xdf, 0xba, 0x3e, 0xe2, 0x88, 0xc6, 0xbe, 0xa3, 0x30, 0xe3, 0x3e,
    0x18, 0x7e, 0x5c, 0xbf, 0x8c, 0x44, 0xfb, 0xbd, 0x5a, 0x90, 0x81, 0xbf, 0xf2,
    0x31, 0x3d, 0x3f, 0xef, 0xe3, 0x26, 0x3f, 0xed, 0x8e, 0x61, 0x3f, 0xbb, 0xd7,
    0x30, 0xbf, 0xd0, 0xa9, 0x3d, 0x3e, 0x41, 0xbe, 0x0d, 0xbf, 0x52, 0xe5, 0xc6,
    0x3f, 0xb4, 0x5c, 0xad, 0x3e, 0x2b, 0x16, 0xa7, 0xbf, 0x3d, 0x65, 0x30, 0x3f,
    0x1b, 0x7a, 0x6e, 0x3f, 0xa5, 0x95, 0xdc, 0x3f, 0xa5, 0xa8, 0xda, 0xbf, 0x39,
    0x1b, 0xf2, 0xbe, 0x44, 0xb2, 0x3f, 0x3f, 0x65, 0xb8, 0xd0, 0xbe, 0x92, 0x4f,
    0xab, 0xbf, 0xf2, 0x9e, 0xd5, 0x3e, 0xca, 0xad, 0x26, 0x3e, 0x55, 0x12, 0x52,
    0xbf, 0xb3, 0x99, 0xa4, 0xbd, 0xef, 0x65, 0xb1, 0x3d, 0x5d, 0x44, 0x0f, 0x3f,
    0x5d, 0x99, 0x4d, 0xbf, 0xd6, 0x37, 0x14, 0xbd, 0x76, 0xce, 0x8d, 0xbf, 0x8d,
    0xa4, 0xe0, 0xbc, 0x07, 0xab, 0x4b, 0xbe, 0xab, 0x06, 0x56, 0xbf, 0x3a, 0x08,
    0x6a, 0x3f, 0xe4, 0x1e, 0x5e, 0x3f, 0xf6, 0x13, 0x16, 0xbf, 0xe8, 0xec, 0xf3,
    0xbd, 0xaa, 0x00, 0xcb, 0x3e, 0x35, 0x23, 0xbc, 0xbe, 0x7a, 0x53, 0x39, 0x3e,
    0xb0, 0x40, 0x95, 0x3d, 0x98, 0xe4, 0x2c, 0xbf, 0x68, 0x01, 0x2f, 0x3f, 0x18,
    0xf1, 0x69, 0x3d, 0x40, 0x30, 0x2e, 0x3f, 0x95, 0x50, 0xf2, 0x3e, 0x01, 0x72,
    0xb2, 0xbe, 0x2b, 0x85, 0x20, 0x3e, 0xc7, 0x29, 0x00, 0xbc, 0x54, 0xcc, 0x2c,
    0xbf, 0x4e, 0xd2, 0x28, 0xc0, 0x4b, 0x76, 0xd0, 0xbe, 0x50, 0x49, 0x2b, 0xbf,
    0x52, 0x15, 0x31, 0xc0, 0x72, 0x0e, 0x1f, 0xc0, 0xe4, 0xfe, 0x27, 0xbf, 0xbb,
    0x43, 0x1d, 0x40, 0x0e, 0xe1, 0x04, 0x3f, 0x5e, 0xea, 0x7e, 0xbf, 0x4b, 0xec,
    0x3b, 0x3f, 0xfb, 0xdd, 0xe7, 0x3f, 0x52, 0x3d, 0xd3, 0xbf, 0x34, 0x4f, 0xb0,
    0xbf, 0xd6, 0xf8, 0x2a, 0x3e, 0xdb, 0xea, 0x14, 0xbf, 0xb6, 0x55, 0x71, 0x3f,
    0x7e, 0x82, 0x62, 0xbf, 0xea, 0x4c, 0x25, 0xbf, 0x99, 0xad, 0xd3, 0xbf, 0x3d,
    0xec, 0x34, 0xbf, 0x01, 0xe0, 0xfd, 0x3f, 0x9d, 0x17, 0xbd, 0x3f, 0xbf, 0x15,
    0xa0, 0xbf, 0x8a, 0xb7, 0x0a, 0xbf, 0x47, 0xd1, 0x9b, 0x3f, 0x6b, 0x8e, 0xe0,
    0xbf, 0x94, 0x4e, 0xbe, 0xbe, 0xf5, 0x41, 0x32, 0xbf, 0x30, 0x8e, 0x93, 0x3e,
    0x06, 0x06, 0x39, 0x3f, 0x60, 0xb9, 0x94, 0x3e, 0xf6, 0x0c, 0x71, 0x3f, 0xd0,
    0xd9, 0x8e, 0xbd, 0x0a, 0x7e, 0x6f, 0xbf, 0x57, 0xff, 0x81, 0x3e, 0x5d, 0x16,
    0x19, 0xbd, 0xc0, 0x2c, 0x9f, 0x3f, 0x54, 0x91, 0xc4, 0xbd, 0x08, 0x3b, 0x4c,
    0x40, 0x42, 0x5a, 0xbc, 0xbf, 0x0c, 0x95, 0x02, 0x3f, 0xa7, 0x15, 0xc9, 0xbe,
    0x3f, 0xb4, 0xaa, 0xbe, 0xdb, 0xfd, 0xbc, 0xbe, 0x9f, 0x7c, 0xc0, 0x3e, 0x09,
    0x25, 0xad, 0xbd, 0x90, 0xe7, 0x55, 0x3f, 0xef, 0x40, 0xa6, 0xbe, 0xb9, 0xa8,
    0xfc, 0x3e, 0x0d, 0xd6, 0xc3, 0xbe, 0xc4, 0x9c, 0x4c, 0x3e, 0xa8, 0x7b, 0x3e,
    0x3d, 0x04, 0xe7, 0x42, 0x3e, 0xd0, 0xff, 0x03, 0xbf, 0xde, 0xde, 0xf3, 0x3e,
    0x1c, 0x4f, 0x05, 0x3e, 0xa1, 0x8f, 0xd5, 0x3e, 0xdf, 0xe7, 0xbc, 0xbe, 0x92,
    0x7a, 0x81, 0xbe, 0x17, 0x40, 0x06, 0xbf, 0x23, 0x5d, 0x90, 0xbf, 0x51, 0xf9,
    0xf4, 0x3d, 0x71, 0xe9, 0x25, 0x40, 0xb3, 0xcb, 0x12, 0xbe, 0x3c, 0x15, 0xe0,
    0xbf, 0x5f, 0xb0, 0xcd, 0xbe, 0x80, 0x0b, 0xb4, 0x3e, 0x59, 0xe9, 0x00, 0x3e,
    0x15, 0x05, 0x0b, 0xc0, 0x24, 0x95, 0x89, 0xbf, 0xc6, 0x96, 0xa6, 0x3d, 0xa0,
    0x66, 0x89, 0xbf, 0x7b, 0x08, 0xfc, 0x3f, 0xbe, 0xd0, 0x9e, 0x3d, 0x48, 0x87,
    0xdd, 0x3c, 0x90, 0x47, 0x33, 0x3f, 0x2e, 0x1a, 0x0f, 0xbf, 0xd0, 0x07, 0xfc,
    0x3e, 0xb1, 0xac, 0x28, 0xbf, 0xf2, 0x7c, 0x92, 0xbc, 0xa7, 0xb2, 0xf5, 0x3e,
    0x04, 0x14, 0xd5, 0x3b, 0x2e, 0x5d, 0xac, 0xbf, 0xfa, 0x2a, 0xab, 0x3e, 0x1e,
    0x85, 0x40, 0x3e, 0x74, 0xd1, 0x96, 0x3e, 0x36, 0xff, 0xaa, 0xbe, 0xad, 0xd3,
    0xe4, 0xbd, 0x1d, 0x01, 0x5c, 0x3e, 0xe8, 0x0e, 0x0c, 0x3d, 0x56, 0xf3, 0x04,
    0xbe, 0x10, 0x2d, 0xb3, 0x3c, 0xc6, 0x1a, 0x33, 0xbf, 0xb2, 0xdd, 0xea, 0xbe,
    0x64, 0xaf, 0x13, 0xbc, 0xa4, 0xe5, 0xc7, 0x3e, 0x71, 0xdf, 0x24, 0x3e, 0x69,
    0xc4, 0xb4, 0xbe, 0xa6, 0x9d, 0x07, 0xbe, 0x67, 0x2e, 0xc1, 0xbf, 0xad, 0x10,
    0xfb, 0xbc, 0xba, 0x38, 0xe2, 0x3b, 0x64, 0x55, 0x08, 0x3d, 0x69, 0x0e, 0x65,
    0xbe, 0xcc, 0x2b, 0x19, 0xbf, 0x30, 0x69, 0xc4, 0xbe, 0xc8, 0x9f, 0xba, 0x3e,
    0x40, 0x7a, 0x78, 0x3d, 0x32, 0x7f, 0x66, 0x3e, 0x91, 0xc2, 0x04, 0xbd, 0x17,
    0x3c, 0x82, 0xbe, 0xa9, 0x1d, 0xab, 0xbd, 0x5a, 0x82, 0x1b, 0xbf, 0xfa, 0x5e,
    0x59, 0xbe, 0x11, 0x64, 0x3f, 0x3e, 0x88, 0x7f, 0x5d, 0x3e, 0x2e, 0x23, 0x0f,
    0x3c, 0x17, 0x9c, 0x27, 0xbe, 0xd4, 0x59, 0x8c, 0xbe, 0xc9, 0x53, 0xbf, 0xbe,
    0x38, 0xa5, 0xd2, 0xbf, 0xc7, 0xb7, 0x1d, 0x3f, 0xd9, 0xf1, 0xa1, 0xc0, 0x77,
    0x3b, 0x4e, 0xbf, 0x69, 0xaa, 0xd4, 0xbf, 0xdb, 0xa8, 0x92, 0xbf, 0x83, 0x24,
    0xc1, 0x3f, 0x2e, 0x12, 0x63, 0xbe, 0x85, 0xd0, 0x92, 0xbe, 0x0b, 0x49, 0x1a,
    0xbf, 0x46, 0x19, 0x93, 0x3f, 0x7a, 0xac, 0x2c, 0xbf, 0x05, 0xa0, 0x9f, 0xc0,
    0x44, 0x27, 0x07, 0x40, 0xef, 0xfc, 0x2b, 0xbf, 0x18, 0xaa, 0x72, 0xbe, 0x00,
    0xee, 0x6a, 0x3e, 0x69, 0xef, 0xe6, 0x3f, 0x02, 0x33, 0xcb, 0xbf, 0x45, 0x82,
    0xf0, 0xbf, 0x15, 0x3b, 0x17, 0x3f, 0xf4, 0x58, 0x3e, 0xbf, 0xf8, 0x77, 0xe2,
    0xbd, 0xf4, 0x68, 0x7c, 0xbf, 0xd2, 0xc2, 0x42, 0x3f, 0x46, 0x79, 0xe0, 0x3d,
    0xbb, 0x79, 0x5c, 0x3f, 0x84, 0xcf, 0x80, 0xbe, 0x29, 0xe0, 0x2a, 0x3f, 0xbc,
    0xae, 0x89, 0xbe, 0x87, 0xbe, 0x1d, 0x3f, 0xed, 0x63, 0xd1, 0xbe, 0xbe, 0x43,
    0xce, 0x3e, 0xea, 0x81, 0x6c, 0xbf, 0xd3, 0x8a, 0x4d, 0x3f, 0x44, 0x19, 0x1b,
    0x3f, 0x2a, 0xd5, 0xd0, 0x3e, 0xf3, 0x5a, 0x0d, 0xbf, 0xd3, 0x4f, 0x0c, 0x3e,
    0x20, 0x98, 0x2a, 0xbf, 0x2a, 0xd6, 0x8a, 0xbe, 0x21, 0xee, 0x9c, 0x3d, 0xc7,
    0xca, 0x15, 0x3c, 0x0a, 0x2b, 0x1b, 0xbe, 0xd6, 0x5c, 0x8a, 0x3d, 0xf4, 0xc3,
    0x1f, 0xbf, 0x57, 0x44, 0x3c, 0x3f, 0x52, 0x01, 0x82, 0xbf, 0x30, 0x33, 0x92,
    0x3c, 0xe8, 0x76, 0xaf, 0x3e, 0x40, 0x15, 0xc3, 0x3e, 0xd0, 0x19, 0x08, 0xbe,
    0x73, 0xd4, 0x95, 0x3e, 0xe1, 0x2c, 0x94, 0xbe, 0x7d, 0x63, 0xcf, 0xbd, 0x65,
    0x2d, 0x87, 0x3d, 0x1c, 0x92, 0x60, 0x3f, 0xe6, 0xe9, 0xc6, 0x3d, 0x8e, 0x9d,
    0x37, 0x3d, 0xc9, 0x45, 0x8c, 0xbd, 0xde, 0x12, 0xf1, 0x3e, 0xa0, 0x30, 0xe9,
    0x3e, 0x06, 0x44, 0x0d, 0xc0, 0xd0, 0x93, 0x05, 0x3f, 0x8f, 0x10, 0x08, 0x3f,
    0x11, 0x8c, 0xde, 0x3e, 0x6a, 0x5e, 0x64, 0xbf, 0xc2, 0xd4, 0x08, 0xbe, 0x7c,
    0x71, 0x98, 0x3e, 0x75, 0xb6, 0x1a, 0xbe, 0x2d, 0x59, 0x0d, 0xbf, 0x2e, 0x87,
    0xbd, 0xbc, 0x97, 0x74, 0x0e, 0xc0, 0x02, 0xeb, 0xae, 0xbe, 0x2b, 0x76, 0x42,
    0x3e, 0x21, 0xdb, 0x4a, 0x3e, 0x47, 0xb7, 0x17, 0x3e, 0xf3, 0xee, 0x0e, 0x3f,
    0xac, 0xf7, 0xac, 0x3e, 0xef, 0x39, 0xc3, 0xbf, 0xa6, 0xf1, 0xb8, 0x3c, 0x6b,
    0x5b, 0x74, 0xbe, 0x7b, 0x37, 0x83, 0xbc, 0xb9, 0xd5, 0xa6, 0xbe, 0x92, 0x6b,
    0x24, 0x3f, 0x2b, 0x9f, 0xa5, 0xbd, 0x46, 0xf2, 0x12, 0x3e, 0x2e, 0x33, 0x1f,
    0xbe, 0x61, 0x3c, 0xb5, 0xbc, 0x9b, 0xf1, 0xa6, 0xbe, 0x2a, 0xd7, 0x5f, 0x3e,
    0x3c, 0x39, 0x11, 0xbe, 0x0c, 0xbb, 0x56, 0x3e, 0xa7, 0x70, 0xf8, 0xbe, 0x8b,
    0x03, 0xa3, 0x3e, 0x4e, 0xcc, 0xed, 0x3e, 0xd7, 0xca, 0xd5, 0xbd, 0x8a, 0x6a,
    0x1e, 0x3c, 0x76, 0x8f, 0x6c, 0x3e, 0x09, 0x40, 0xab, 0xbe, 0x26, 0x8e, 0x02,
    0x3f, 0x33, 0x85, 0x8b, 0xbe, 0x79, 0xc7, 0xa3, 0xbd, 0x9c, 0x08, 0x2e, 0xbf,
    0x4e, 0xa6, 0x0d, 0x3f, 0xde, 0xd0, 0xe1, 0x3e, 0x04, 0x6d, 0x06, 0x3f, 0x97,
    0x63, 0x57, 0xbe, 0x11, 0x69, 0xde, 0xbd, 0x58, 0xed, 0xf4, 0xbd, 0x93, 0x55,
    0xbd, 0x3e, 0x03, 0xa8, 0x69, 0xbe, 0x4b, 0xf8, 0x02, 0x3f, 0xfd, 0x62, 0x03,
    0xbf, 0xb7, 0xab, 0xab, 0x3e, 0x8e, 0x72, 0xe5, 0x3e, 0x36, 0xdf, 0x3c, 0x3e,
    0xab, 0x07, 0x43, 0x3d, 0x6b, 0x04, 0xa7, 0x3e, 0xd0, 0x67, 0xab, 0xbe, 0xdd,
    0x3f, 0x4c, 0x3c, 0x83, 0xd4, 0xb3, 0xbf, 0x5c, 0xf9, 0x7c, 0xbf, 0x3c, 0x09,
    0x43, 0xbf, 0x96, 0x4c, 0xee, 0x3e, 0xf6, 0xde, 0x70, 0xbf, 0x22, 0xbc, 0xc6,
    0x3f, 0xe3, 0xb5, 0x0b, 0x3f, 0x84, 0x7a, 0x04, 0x3f, 0x9e, 0x4a, 0x0b, 0x3f,
    0x12, 0xa9, 0x88, 0x3f, 0xa1, 0xd1, 0x9e, 0xbf, 0x7b, 0x4c, 0x24, 0xbf, 0xc8,
    0x82, 0x25, 0xbf, 0x2c, 0x0d, 0x1c, 0x3f, 0x8d, 0xac, 0xd4, 0x3e, 0x40, 0x8b,
    0x3d, 0xbf, 0x62, 0xd2, 0x0d, 0x3f, 0x27, 0x6d, 0x6b, 0xbe, 0x32, 0x45, 0x22,
    0xbe, 0x4f, 0x06, 0x55, 0x3f, 0xb2, 0x2a, 0x4f, 0x3e, 0xeb, 0x99, 0x35, 0x3e,
    0x14, 0x5b, 0xf6, 0x3e, 0x07, 0xbd, 0x63, 0x3f, 0x01, 0x5b, 0x57, 0x3f, 0x98,
    0x44, 0xaa, 0xbf, 0xf4, 0x53, 0x7c, 0x3d, 0xa6, 0xaf, 0xbb, 0xbe, 0x60, 0xb2,
    0x1f, 0xbe, 0xe7, 0x1c, 0xf3, 0xbe, 0xe2, 0x3c, 0xcf, 0xbd, 0xa3, 0x8b, 0x31,
    0x3f, 0x0a, 0xdf, 0x30, 0xbf, 0xea, 0x2e, 0xc1, 0x3e, 0x82, 0x25, 0xa4, 0x3f,
    0x65, 0x15, 0x49, 0x3d, 0xdb, 0x04, 0x9a, 0xbf, 0x7c, 0x01, 0xb9, 0x3e, 0x06,
    0xef, 0xa2, 0xbf, 0x0a, 0xa4, 0x26, 0x3f, 0x78, 0xa5, 0x2d, 0xbf, 0x6a, 0x79,
    0xe4, 0xbe, 0x75, 0x2f, 0x0f, 0xbf, 0xff, 0xa9, 0x25, 0x3f, 0x47, 0x5a, 0x13,
    0xbd, 0xc8, 0x43, 0x04, 0x3f, 0x3b, 0x09, 0xa4, 0xbe, 0xb9, 0x6f, 0x8a, 0x3d,
    0x9c, 0x52, 0xe4, 0xbe, 0x97, 0xab, 0xc2, 0x3e, 0xf7, 0xc2, 0x12, 0xbf, 0x9a,
    0xcd, 0x50, 0x3e, 0x17, 0x07, 0x25, 0xbf, 0xdd, 0xe0, 0x46, 0x3f, 0x02, 0x84,
    0xf9, 0x3e, 0xbf, 0x11, 0x07, 0x3f, 0xc3, 0x07, 0x1a, 0xbf, 0x9d, 0x26, 0x66,
    0xbe, 0x49, 0xf1, 0xd5, 0xbe, 0xe8, 0x5f, 0xb0, 0x3e, 0x92, 0x62, 0x30, 0xbf,
    0xc3, 0xbd, 0x9b, 0x3e, 0x6f, 0x15, 0x2c, 0xbf, 0xe1, 0x5d, 0x99, 0x3f, 0xc3,
    0x0e, 0x4f, 0x3f, 0x34, 0xf6, 0x47, 0x3f, 0x78, 0x3d, 0x16, 0xbf, 0xe6, 0x35,
    0x74, 0x3f, 0x46, 0x39, 0x25, 0x3c, 0x7d, 0x68, 0x52, 0x3f, 0xa9, 0x89, 0x23,
    0xbf, 0x28, 0x8a, 0x90, 0x3e, 0x51, 0xf1, 0x65, 0xbf, 0xb5, 0xa9, 0x94, 0x3f,
    0x7d, 0xe3, 0xf6, 0x3e, 0xd2, 0x16, 0x0f, 0x3f, 0x1f, 0x56, 0x22, 0xbf, 0xc6,
    0x93, 0xd1, 0x3e, 0xe1, 0x20, 0x38, 0xbf, 0x52, 0x55, 0x53, 0x40, 0x6e, 0x2e,
    0x29, 0x3f, 0x43, 0x6a, 0x8e, 0xc0, 0x69, 0x6c, 0x55, 0x3f, 0xe7, 0xf8, 0xbe,
    0x3f, 0xd5, 0x4b, 0x4b, 0x3f, 0xba, 0x8f, 0xf8, 0xbf, 0x26, 0x33, 0x32, 0xbf,
    0xbf, 0x21, 0x82, 0x3d, 0x25, 0x42, 0x27, 0xbf, 0x01, 0xf4, 0xbf, 0xbf, 0x88,
    0xb8, 0x5b, 0x3e, 0xe1, 0x60, 0xf7, 0xbf, 0x38, 0xea, 0x54, 0xc0, 0x00, 0xea,
    0xb6, 0x3f, 0x52, 0x99, 0x45, 0x3f, 0x7d, 0xc2, 0x29, 0x3f, 0x7d, 0x9b, 0x31,
    0x3e, 0xf3, 0xb9, 0x49, 0xbf, 0xa1, 0xa1, 0x6e, 0xc0, 0xe4, 0x0f, 0x64, 0x3f,
    0x2a, 0x83, 0x65, 0xbf, 0xd7, 0xd5, 0xd8, 0xbe, 0xfd, 0x62, 0x30, 0xbf, 0xe9,
    0x71, 0x44, 0x3f, 0x9a, 0x5f, 0x90, 0x3e, 0x14, 0xcc, 0x73, 0x3f, 0x77, 0xa1,
    0xc5, 0xbe, 0x15, 0x43, 0x03, 0x3f, 0x87, 0xfc, 0x70, 0xbe, 0x31, 0x51, 0x76,
    0x3e, 0x75, 0x79, 0x15, 0xbf, 0x95, 0xdd, 0xb6, 0x3d, 0x07, 0xe4, 0x5f, 0xbf,
    0xd5, 0x69, 0x28, 0x3f, 0x41, 0xf6, 0x26, 0x3f, 0x0c, 0x9c, 0x33, 0x3f, 0xff,
    0x75, 0x2f, 0xbf, 0xdf, 0xec, 0x39, 0x3d, 0x38, 0x0b, 0xf4, 0xbe, 0x21, 0xfd,
    0xcb, 0x3c, 0x60, 0x82, 0x2b, 0xbe, 0x6e, 0xfa, 0x06, 0x3e, 0x45, 0x6a, 0xdc,
    0xbe, 0xfb, 0x87, 0xab, 0x3e, 0x28, 0xde, 0x19, 0xbe, 0x6e, 0x6e, 0xc7, 0x3e,
    0x09, 0x0b, 0xe2, 0xbd, 0xb3, 0x1e, 0xd8, 0x3d, 0xbd, 0xe6, 0xcd, 0x3d, 0x79,
    0xb8, 0xdd, 0x3e, 0x9a, 0x2f, 0xae, 0xbe, 0x30, 0x67, 0xb7, 0x3e, 0x63, 0x80,
    0x06, 0xbe, 0xc9, 0xb7, 0xfc, 0x3e, 0x06, 0x0a, 0x6d, 0x3e, 0x4b, 0x69, 0x2a,
    0xbd, 0xd6, 0xe0, 0xf0, 0xbd, 0xa2, 0x37, 0x54, 0x3e, 0x59, 0x38, 0xc9, 0xbd,
    0x4c, 0x0a, 0x93, 0x3f, 0x79, 0x39, 0xb3, 0x3e, 0xd6, 0x59, 0x41, 0xbf, 0xa2,
    0xf2, 0x1c, 0x3f, 0x3b, 0x40, 0xf5, 0x3d, 0x9b, 0x6e, 0x9f, 0x3f, 0x0b, 0xb3,
    0x68, 0xbe, 0x72, 0x50, 0x9b, 0xbe, 0x3a, 0xa9, 0xed, 0xbe, 0x63, 0x54, 0xbd,
    0xbe, 0x03, 0x66, 0x94, 0xbe, 0x6e, 0x39, 0x75, 0xbf, 0x73, 0xc7, 0x9d, 0xbf,
    0xa5, 0x76, 0x83, 0xbf, 0xaa, 0x41, 0x24, 0xbf, 0x2f, 0x02, 0x38, 0x3f, 0x70,
    0xac, 0x3e, 0x3c, 0xee, 0xff, 0x1c, 0xbf, 0x53, 0x0a, 0x79, 0xbc, 0x69, 0x98,
    0x83, 0xbf, 0x58, 0xdf, 0x0a, 0x3f, 0x50, 0x61, 0xd0, 0xbe, 0x13, 0x81, 0x1f,
    0x3d, 0x66, 0xdd, 0x42, 0xbf, 0x1a, 0x63, 0x03, 0x3f, 0xb7, 0xb8, 0x28, 0x3e,
    0xe8, 0xe2, 0x74, 0x3f, 0x0a, 0x09, 0xef, 0xbe, 0xac, 0xfc, 0xa5, 0x3e, 0x4d,
    0x07, 0x44, 0xbc, 0x7c, 0x52, 0x18, 0x3f, 0x09, 0xc9, 0xa6, 0xbe, 0xec, 0xe7,
    0xea, 0x3e, 0xb0, 0xa3, 0x80, 0xbf, 0x7b, 0x42, 0x5b, 0x3f, 0x84, 0xee, 0x33,
    0x3f, 0x21, 0x7d, 0x87, 0x3e, 0x17, 0x42, 0x04, 0xbf, 0x46, 0x98, 0xb7, 0x3e,
    0x4b, 0x6c, 0x1b, 0xbf, 0x7c, 0x43, 0x74, 0xbe, 0xe2, 0xfe, 0xc3, 0x3d, 0x7d,
    0x9a, 0x09, 0x3f, 0xab, 0x39, 0x8b, 0xbe, 0x27, 0x6a, 0x81, 0x3d, 0xf0, 0x5f,
    0x68, 0x3e, 0x81, 0xe9, 0x51, 0x3e, 0x81, 0x6d, 0xae, 0x3e, 0x6c, 0xc3, 0x3f,
    0x3e, 0x61, 0xc4, 0x13, 0x3f, 0xaf, 0x38, 0x13, 0x3d, 0xda, 0xf2, 0xb9, 0xbe,
    0xe0, 0x7c, 0x2d, 0x3e, 0x76, 0x28, 0xbd, 0xbe, 0xa4, 0x5b, 0x70, 0x3e, 0x7b,
    0xb6, 0x7f, 0x3e, 0x4b, 0x3a, 0x23, 0xbe, 0x7a, 0xf9, 0x62, 0x3e, 0x61, 0x2e,
    0xc7, 0x3e, 0x2e, 0x2a, 0xc3, 0x3e, 0x46, 0x11, 0x8b, 0x3e, 0x87, 0x9a, 0xb8,
    0xbe, 0x36, 0xef, 0x1e, 0x3e, 0x5d, 0xf9, 0x03, 0xbf, 0xc5, 0xcf, 0x18, 0x3f,
    0xaa, 0xb5, 0xbe, 0xbc, 0x78, 0xf0, 0x53, 0x3f, 0x80, 0x6f, 0x11, 0xbe, 0x7a,
    0x03, 0xb7, 0x3e, 0x06, 0x11, 0x97, 0xbe, 0xbd, 0xa9, 0x01, 0x3f, 0xeb, 0xcf,
    0xbd, 0xbd, 0xd4, 0xea, 0x2a, 0xbe, 0x0d, 0x50, 0xb6, 0xbe, 0xc2, 0x5f, 0x35,
    0x3f, 0x01, 0xaf, 0xb1, 0x3e, 0xf8, 0x2b, 0x64, 0x3e, 0x73, 0x13, 0xe2, 0xbe,
    0x00, 0x08, 0x7b, 0xbe, 0x79, 0x01, 0xd1, 0xbe, 0x4a, 0x94, 0xa8, 0x3e, 0x48,
    0xcf, 0x09, 0xbf, 0x8e, 0x68, 0xba, 0x3c, 0xce, 0x81, 0xb9, 0xbe, 0x9d, 0xa3,
    0x26, 0x3f, 0x1a, 0x6d, 0xe0, 0x3e, 0x4f, 0x47, 0xd2, 0x3e, 0x65, 0x90, 0x20,
    0x3e, 0xe7, 0x90, 0xa6, 0x3d, 0x62, 0xeb, 0x15, 0x3e, 0x9e, 0x8a, 0xe4, 0x3e,
    0xbf, 0x97, 0x48, 0xbe, 0x56, 0x33, 0xd6, 0x3e, 0xb5, 0x1b, 0x38, 0xbf, 0x79,
    0x80, 0xd1, 0x3e, 0xa0, 0x09, 0x07, 0x3f, 0x15, 0xcf, 0x12, 0x3e, 0x1a, 0x32,
    0x82, 0xbe, 0xa8, 0xa2, 0xbe, 0x3d, 0x2f, 0x24, 0x64, 0xbe, 0xcb, 0xae, 0x50,
    0xbf, 0x7a, 0xa0, 0xc5, 0x3e, 0x46, 0x84, 0xe8, 0x3f, 0x72, 0x30, 0xed, 0xbe,
    0xe5, 0x0c, 0x7d, 0xbf, 0x3e, 0x19, 0x5d, 0xc0, 0xad, 0x7d, 0x03, 0x40, 0x90,
    0x1d, 0x3e, 0xbf, 0x4f, 0x4a, 0x17, 0x3f, 0x80, 0x2e, 0xbe, 0xbd, 0x40, 0xab,
    0x9e, 0x3f, 0x5c, 0x46, 0xfb, 0x3f, 0x9a, 0x64, 0xb0, 0x3f, 0xdb, 0xd7, 0xe1,
    0x3e, 0x3d, 0x16, 0x78, 0xbe, 0x07, 0xeb, 0xaf, 0x3e, 0xe8, 0xfc, 0x0a, 0x40,
    0x07, 0xdf, 0xaf, 0x3f, 0x65, 0xfa, 0xc3, 0xbe, 0x58, 0x82, 0x48, 0x3f, 0x8f,
    0x33, 0x79, 0x3e, 0x21, 0x67, 0xb6, 0xbe, 0x19, 0xef, 0x2d, 0xbe, 0xcb, 0x6d,
    0x2a, 0xbf, 0xd8, 0xfc, 0x2a, 0x3e, 0x7e, 0xcb, 0xda, 0xbe, 0x46, 0x95, 0x83,
    0x3e, 0x8f, 0x11, 0xd0, 0xbd, 0x61, 0xeb, 0xa5, 0x3e, 0x6f, 0x68, 0x29, 0xbe,
    0xb0, 0x08, 0xe9, 0x3e, 0xff, 0xab, 0x03, 0xbe, 0xfe, 0x74, 0x8b, 0x3e, 0x19,
    0xc4, 0x41, 0xbe, 0x58, 0xe3, 0x10, 0x3f, 0xd9, 0x5f, 0xef, 0x3e, 0x34, 0xf7,
    0xb7, 0xbd, 0x5d, 0xa3, 0x88, 0x3e, 0xec, 0x69, 0xca, 0xbc, 0x24, 0x27, 0xe7,
    0xbe, 0x4c, 0x83, 0x05, 0xbe, 0x2f, 0x0e, 0x17, 0xbf, 0x7a, 0xfd, 0x97, 0x3f,
    0xce, 0xab, 0xda, 0xbe, 0xd1, 0x6c, 0xb2, 0x3e, 0x0d, 0x8d, 0xfb, 0x3e, 0x0f,
    0xfb, 0x8d, 0x3f, 0xab, 0x51, 0xeb, 0xbe, 0x14, 0xb7, 0xf9, 0x3d, 0x3a, 0x55,
    0x40, 0x3f, 0x3d, 0x03, 0x0c, 0x3f, 0x3b, 0xbf, 0x9b, 0x3e, 0x89, 0xce, 0x87,
    0xbe, 0xc0, 0x27, 0x1b, 0x3d, 0x8e, 0x5d, 0xe1, 0xbe, 0x8c, 0xe2, 0x42, 0xbc,
    0x94, 0x59, 0x28, 0x3f, 0xd4, 0x0e, 0x9b, 0xbf, 0x2b, 0xa0, 0xb5, 0x3e, 0xb7,
    0x3e, 0xf4, 0x3f, 0x77, 0xd2, 0x1a, 0x3f, 0xd9, 0xf9, 0x22, 0xbf, 0x12, 0x35,
    0x43, 0xbe, 0xcf, 0x73, 0x67, 0xbf, 0x06, 0x8a, 0x30, 0x3f, 0x72, 0xb5, 0xc9,
    0x3b, 0x40, 0xa2, 0x75, 0x3f, 0x5d, 0xa6, 0x9c, 0xbe, 0x8c, 0x8e, 0xed, 0x3e,
    0x1c, 0x70, 0x8b, 0xbc, 0xcb, 0xcb, 0x3c, 0x3f, 0x1e, 0xb4, 0xd2, 0xbe, 0xab,
    0x40, 0x39, 0x3e, 0x76, 0xe9, 0x2d, 0xbf, 0xed, 0x1a, 0x28, 0x3f, 0xac, 0x08,
    0x04, 0x3f, 0x16, 0xc7, 0xc8, 0x3e, 0xd0, 0x5a, 0x7c, 0xbe, 0x84, 0xd2, 0xbf,
    0x3e, 0x37, 0x5e, 0x96, 0xbe, 0x82, 0x90, 0x88, 0xbd, 0xd9, 0x19, 0x42, 0x3e,
    0xff, 0x02, 0x04, 0xbf, 0xb0, 0x07, 0x32, 0xbf, 0x08, 0x68, 0x70, 0x3e, 0x96,
    0xad, 0xab, 0xbe, 0x33, 0xe1, 0xa6, 0x3f, 0x1e, 0x92, 0x7e, 0xbf, 0xe2, 0x37,
    0xa7, 0x3e, 0x04, 0xa2, 0x29, 0x3f, 0x08, 0x2a, 0x74, 0x3f, 0xac, 0x6d, 0x5a,
    0xbf, 0xc9, 0x16, 0xd5, 0xbe, 0x07, 0x3f, 0xe6, 0xbe, 0xa9, 0x1c, 0x40, 0xbf,
    0xb2, 0x98, 0x99, 0x3d, 0x08, 0x56, 0x34, 0x3f, 0xac, 0x52, 0x14, 0x3f, 0x85,
    0xc4, 0x58, 0x3e, 0xbf, 0x33, 0xc2, 0xbe, 0x95, 0x16, 0x41, 0xbe, 0xba, 0x8b,
    0xba, 0xbe, 0x72, 0xac, 0x35, 0xbe, 0xb2, 0xa4, 0x09, 0x3e, 0x90, 0x67, 0xbf,
    0x3d, 0x89, 0x49, 0x5d, 0x3e, 0xf4, 0x4e, 0xa0, 0xbe, 0xc7, 0x50, 0x09, 0x3f,
    0xfb, 0x59, 0x54, 0xbf, 0xc0, 0x56, 0xa5, 0x3e, 0x2c, 0x31, 0x57, 0xbe, 0x02,
    0xa8, 0xc0, 0xbf, 0x8a, 0xea, 0xde, 0xbe, 0xc9, 0x52, 0x9c, 0x3d, 0x55, 0x00,
    0xe7, 0x3e, 0x41, 0x21, 0x9e, 0x3e, 0xdc, 0xfe, 0x57, 0xbf, 0xcc, 0xcb, 0xc9,
    0xbe, 0xbf, 0xeb, 0x3c, 0xbd, 0x75, 0x8e, 0x95, 0x3e, 0x04, 0x96, 0x40, 0x3e,
    0xd3, 0x72, 0x9f, 0xbe, 0x57, 0xa9, 0x23, 0x3d, 0x24, 0x3d, 0x8e, 0xbe, 0x18,
    0x7e, 0xb9, 0x3e, 0x61, 0x0c, 0x53, 0x3e, 0x55, 0x7a, 0x53, 0x3e, 0x1f, 0x47,
    0xe0, 0xbd, 0x41, 0xa3, 0x32, 0xbe, 0x66, 0xb4, 0xf5, 0x3d, 0x6e, 0x62, 0xc6,
    0x3e, 0xfe, 0x99, 0x13, 0xbe, 0x57, 0x7c, 0x7e, 0x3e, 0x57, 0xe3, 0x42, 0xbe,
    0x40, 0x2d, 0x22, 0x3e, 0x86, 0xaa, 0xfa, 0x3e, 0xbf, 0x1b, 0x0f, 0xbe, 0x6a,
    0x30, 0x82, 0x3d, 0x76, 0xfb, 0xda, 0x3d, 0x10, 0xf0, 0xb5, 0xbe, 0xa5, 0x26,
    0xa6, 0xc0, 0x3a, 0x52, 0xd0, 0x3f, 0xad, 0x0d, 0xe4, 0xbe, 0x76, 0x3f, 0x2e,
    0xc0, 0xe4, 0xb9, 0x0a, 0xc0, 0xdc, 0xc8, 0x3d, 0x3f, 0x7d, 0x1c, 0x2c, 0x40,
    0xdf, 0x0f, 0xaa, 0xbf, 0x0e, 0x95, 0x6b, 0xbf, 0x7c, 0x69, 0x42, 0xc0, 0x60,
    0x1e, 0xec, 0x3f, 0x8a, 0x0c, 0xcb, 0x3c, 0x51, 0x9d, 0x60, 0xc0, 0xfa, 0x5c,
    0xe2, 0x3d, 0x94, 0x8d, 0xbe, 0xbf, 0x06, 0x23, 0xa4, 0x3e, 0x92, 0xc1, 0x89,
    0x3f, 0xfc, 0x24, 0xe1, 0xbe, 0x02, 0x5b, 0x2f, 0xc0, 0xb5, 0x38, 0x10, 0x3f,
    0x67, 0xb3, 0x1d, 0x3f, 0x61, 0xac, 0x48, 0xbe, 0xc6, 0x07, 0xec, 0xbe, 0xf1,
    0xb8, 0x04, 0xbf, 0x8e, 0xaa, 0x36, 0x3f, 0xbd, 0x99, 0x04, 0x3d, 0x2c, 0xb6,
    0x6f, 0x3f, 0x88, 0xeb, 0x31, 0xbf, 0x6f, 0xdd, 0xcc, 0x3e, 0x40, 0x29, 0xd9,
    0xbd, 0xd0, 0xef, 0x29, 0x3f, 0xd5, 0xcc, 0x8a, 0x3e, 0x11, 0x8f, 0x94, 0xbc,
    0x03, 0x84, 0x02, 0xbf, 0xd7, 0xa9, 0x93, 0x3e, 0x3c, 0xaf, 0x23, 0x3f, 0xe9,
    0x41, 0x26, 0x3f, 0x6d, 0x7b, 0x5c, 0xbe, 0x8d, 0xf5, 0xc6, 0x3e, 0x0f, 0x43,
    0x06, 0xbf, 0xca, 0xa7, 0x21, 0x40, 0x92, 0x71, 0x4e, 0xbd, 0xe7, 0x77, 0x56,
    0x40, 0x20, 0x14, 0xf0, 0x3f, 0xb7, 0xc5, 0x3c, 0x40, 0x57, 0xda, 0xd4, 0xbf,
    0xe5, 0xc6, 0xac, 0xbf, 0xd1, 0x72, 0xb5, 0xbd, 0xa3, 0x81, 0x0c, 0xc0, 0x9d,
    0x4c, 0x8f, 0x3f, 0x30, 0x91, 0x84, 0xbf, 0x65, 0xe8, 0x43, 0x3f, 0xac, 0x4b,
    0x38, 0x40, 0x5b, 0x31, 0x67, 0xbf, 0xcb, 0xaa, 0x55, 0x3f, 0xb0, 0xf5, 0x96,
    0x3f, 0x0f, 0x7a, 0x90, 0x3f, 0xca, 0x61, 0x2a, 0xbf, 0x26, 0xb2, 0x0b, 0x40,
    0x2e, 0xbb, 0x3a, 0x40, 0x78, 0xa0, 0x09, 0x3f, 0x69, 0x7a, 0x15, 0xbf, 0x10,
    0xeb, 0xe3, 0xbe, 0xc1, 0xcd, 0x00, 0xbf, 0x1e, 0x79, 0x08, 0x3f, 0xd2, 0x95,
    0x91, 0xbe, 0x21, 0x2a, 0x42, 0x3f, 0x44, 0xa1, 0x13, 0xbf, 0x5a, 0x2a, 0x4f,
    0x3d, 0x62, 0x73, 0xa3, 0xbe, 0x00, 0x84, 0x44, 0x3f, 0xde, 0xb4, 0x24, 0xbe,
    0xbc, 0xff, 0x6b, 0x3d, 0x0f, 0x70, 0xf1, 0xbe, 0xd9, 0x3a, 0x3d, 0x3f, 0x20,
    0x4b, 0xd5, 0x3e, 0xc6, 0xd8, 0x7d, 0x3e, 0xa2, 0x54, 0xc9, 0xbe, 0xd4, 0x5a,
    0x1b, 0xbd, 0x4f, 0x20, 0xb9, 0xbe, 0xdb, 0xbc, 0x9b, 0xbe, 0xe7, 0x13, 0xb2,
    0x3e, 0x66, 0x84, 0x79, 0xbe, 0x63, 0xbb, 0xf4, 0xbf, 0x51, 0x4e, 0xab, 0xbc,
    0x6c, 0x5a, 0xff, 0x3e, 0x87, 0x47, 0x1d, 0x3f, 0xdd, 0x9c, 0x7e, 0xbf, 0x27,
    0x64, 0x68, 0x3e, 0x92, 0x19, 0x83, 0x3d, 0x60, 0x79, 0xc8, 0x3e, 0x9a, 0xde,
    0x2b, 0x40, 0x2c, 0x5b, 0x44, 0x40, 0x56, 0x18, 0xdc, 0xbe, 0x0d, 0x75, 0x1c,
    0xbf, 0x3a, 0x0f, 0x3c, 0xbe, 0x70, 0xe8, 0xac, 0x3f, 0xb9, 0x9a, 0xb4, 0xbf,
    0xc6, 0x9e, 0x50, 0x3f, 0xc3, 0x7e, 0xe2, 0xbd, 0x46, 0xef, 0x4d, 0xbe, 0x57,
    0x76, 0xf2, 0xbd, 0x3b, 0xad, 0xd1, 0x3e, 0x50, 0xac, 0xc2, 0xbd, 0x8a, 0xdd,
    0xf5, 0xbd, 0x9c, 0x42, 0x78, 0x3c, 0x53, 0xd4, 0x87, 0x3e, 0x71, 0x1c, 0x00,
    0xbb, 0x53, 0xb5, 0x52, 0x3e, 0x0d, 0xc4, 0xa5, 0x3e, 0x65, 0x9f, 0x26, 0x3b,
    0x47, 0xa1, 0x8b, 0x3c, 0xe2, 0x16, 0x1e, 0x3e, 0x5f, 0xbb, 0x61, 0x3e, 0x6a,
    0x8f, 0xf4, 0x3d, 0xdf, 0x82, 0xf3, 0xbc, 0x76, 0x1f, 0x0b, 0x3e, 0x0d, 0xdc,
    0x47, 0x3e, 0x1d, 0x1d, 0xf1, 0x3c, 0x6d, 0x18, 0x63, 0x3e, 0x5f, 0x26, 0xc1,
    0xbc, 0x34, 0xf7, 0xdf, 0xbd, 0x22, 0x30, 0xb9, 0xbe, 0xc0, 0x34, 0x17, 0xbe,
    0xe4, 0x54, 0xc3, 0xba, 0xf0, 0x48, 0x04, 0x3e, 0xf1, 0x74, 0x25, 0x3e, 0x97,
    0x5a, 0x8c, 0xbe, 0x3b, 0x7d, 0x55, 0xbe, 0x67, 0xb8, 0xc7, 0xbe, 0x1e, 0x31,
    0x6d, 0x3d, 0x9c, 0xd3, 0x5d, 0xbe, 0x74, 0xbd, 0x93, 0xbe, 0x3c, 0x9a, 0xc9,
    0x3d, 0xf5, 0x4a, 0x9a, 0x3c, 0xad, 0xcc, 0x2a, 0x3e, 0xda, 0xd0, 0x8d, 0x3e,
    0x09, 0x8e, 0x67, 0x3d, 0xa8, 0x17, 0x0e, 0x3e, 0x46, 0x42, 0x68, 0xbe, 0xbb,
    0x6c, 0x9b, 0x3d, 0xd4, 0x8f, 0x97, 0xbb, 0x26, 0x65, 0x61, 0x3e, 0x9d, 0xf0,
    0x20, 0x3d, 0x4a, 0xa5, 0x4f, 0xbd, 0xd3, 0x86, 0x95, 0xbe, 0x8b, 0x8b, 0xba,
    0xbd, 0x64, 0x1d, 0x19, 0xbe, 0x5c, 0x13, 0x00, 0xbe, 0x32, 0xd4, 0xa4, 0x3e,
    0xa2, 0x6c, 0x73, 0xbd, 0x8c, 0xc8, 0x20, 0x3e, 0xce, 0x48, 0x05, 0x3d, 0x25,
    0xa0, 0xf9, 0x3c, 0x32, 0x31, 0xf8, 0x3d, 0x75, 0x41, 0xa6, 0xbd, 0x2a, 0x91,
    0x82, 0xbd, 0xee, 0x7a, 0xa3, 0xbc, 0xdc, 0x99, 0x30, 0xbd, 0x59, 0x43, 0x41,
    0xbd, 0xc4, 0x79, 0x96, 0x3f, 0xa6, 0xe5, 0xe2, 0x3e, 0xbc, 0xbb, 0x7b, 0x3e,
    0xa2, 0x7d, 0x19, 0x3f, 0x44, 0x8b, 0x74, 0x3f, 0xa6, 0x25, 0x00, 0xbf, 0x99,
    0xf2, 0x78, 0xbf, 0xcc, 0xa8, 0x3a, 0xbe, 0x49, 0x2b, 0x67, 0x3f, 0xc8, 0x78,
    0xb2, 0xbf, 0xc5, 0x77, 0x11, 0xbf, 0x28, 0xd1, 0x29, 0x3e, 0x51, 0x7e, 0x81,
    0x3e, 0x0d, 0x80, 0x38, 0xbf, 0x7a, 0x44, 0xe1, 0x3e, 0x1c, 0x3d, 0x1c, 0x3e,
    0xc5, 0xe6, 0x06, 0x3f, 0x07, 0x84, 0x1b, 0xbe, 0xa9, 0xce, 0x41, 0xbe, 0xa3,
    0x5f, 0x56, 0xbf, 0x7c, 0x0c, 0x42, 0x3e, 0xee, 0x54, 0xd3, 0xbe, 0xc8, 0x46,
    0x0d, 0xbe, 0x4d, 0x23, 0x18, 0xbe, 0x03, 0x02, 0x66, 0x3d, 0x70, 0x03, 0x27,
    0xbf, 0x76, 0x08, 0x87, 0x3e, 0xe7, 0xa6, 0x38, 0xbe, 0xe3, 0x43, 0xc8, 0x3c,
    0x19, 0xfd, 0x08, 0xbe, 0x0e, 0xd8, 0xfa, 0x3d, 0x32, 0x40, 0xa4, 0x3e, 0x83,
    0xeb, 0xe2, 0xbc, 0xa9, 0x20, 0x84, 0x3d, 0xe1, 0xb3, 0x10, 0x3f, 0xd1, 0xe1,
    0xa9, 0xbd, 0x6e, 0xb4, 0xae, 0xbc, 0xbd, 0x1f, 0x61, 0x3d, 0xbe, 0x62, 0xdd,
    0xbd, 0x25, 0x11, 0xdd, 0xbd, 0x1d, 0x35, 0x18, 0x3f, 0x53, 0xbe, 0x3a, 0xbf,
    0xe1, 0x8a, 0x9b, 0xbd, 0x35, 0x86, 0x93, 0x3e, 0xd1, 0xb7, 0x3d, 0x3f, 0x0e,
    0x25, 0x6e, 0xbe, 0x79, 0xc7, 0x2d, 0xbf, 0x5f, 0x82, 0x7f, 0x3e, 0xcc, 0xa2,
    0x48, 0x3d, 0x07, 0x59, 0xd3, 0xbd, 0xda, 0x83, 0x26, 0xbf, 0x86, 0x7e, 0x6a,
    0xbe, 0x46, 0xc6, 0x65, 0x3f, 0x89, 0x33, 0xcd, 0xbe, 0xb1, 0xf9, 0xe3, 0x3e,
    0x7d, 0x5c, 0x31, 0x3e, 0x1b, 0x99, 0x4f, 0xbe, 0x68, 0x33, 0xfa, 0xbe, 0xc9,
    0x6a, 0x31, 0x3e, 0xd7, 0x51, 0x9f, 0xbe, 0xfa, 0xfa, 0xca, 0x3e, 0x8b, 0xbb,
    0x67, 0x3a, 0xf5, 0xdc, 0x62, 0x3d, 0x80, 0x29, 0xe1, 0xbc, 0xef, 0x29, 0x0e,
    0x3e, 0x70, 0x45, 0xa5, 0xbe, 0x0b, 0x86, 0x89, 0x3e, 0xf1, 0xd4, 0x38, 0xbe,
    0xac, 0x00, 0xc6, 0x3e, 0x96, 0x1c, 0x27, 0xbd, 0xdf, 0x70, 0x03, 0x3e, 0x62,
    0xd4, 0xc1, 0x3d, 0x86, 0xa5, 0x48, 0xbe, 0x19, 0x4a, 0x85, 0xbd, 0xe9, 0x4d,
    0x80, 0x3e, 0x17, 0x46, 0xa8, 0x3c, 0x9e, 0xe1, 0x8e, 0x3d, 0x65, 0x42, 0x27,
    0xbd, 0x3d, 0x98, 0xe3, 0xbe, 0xe7, 0xbb, 0x37, 0xbe, 0x30, 0xcd, 0xda, 0x3e,
    0xd0, 0xde, 0x11, 0xbf, 0x13, 0x58, 0x20, 0xbe, 0x85, 0xb8, 0x14, 0xbe, 0xc9,
    0x88, 0xb4, 0xbd, 0x85, 0xfd, 0xd3, 0x3e, 0x72, 0x4d, 0x25, 0xbe, 0x8f, 0x2c,
    0x9b, 0x3d, 0x02, 0x9a, 0x28, 0xbe, 0x29, 0x43, 0x8c, 0xbd, 0xe0, 0xa4, 0x4b,
    0x3d, 0xde, 0x3d, 0x0b, 0xbf, 0x67, 0x3e, 0x21, 0x3d, 0x2d, 0x0f, 0xca, 0xbe,
    0x76, 0x4f, 0x2e, 0x3f, 0xb9, 0x2b, 0xda, 0xbd, 0xf4, 0xb1, 0x6a, 0xbf, 0x9d,
    0xb1, 0xbe, 0xbe, 0x30, 0x1d, 0xd7, 0xbe, 0x30, 0x75, 0x4c, 0xbe, 0x13, 0x79,
    0x52, 0x3e, 0x2f, 0x49, 0x65, 0xbe, 0x03, 0x52, 0x08, 0x3e, 0x0f, 0xd0, 0x0b,
    0x3c, 0xf6, 0x4d, 0x8b, 0x3e, 0xdb, 0xdf, 0x4d, 0x3e, 0xee, 0x70, 0x1a, 0x3e,
    0x64, 0x76, 0x7f, 0xbd, 0x5e, 0x26, 0x46, 0xbe, 0x80, 0x88, 0x7d, 0xbe, 0xea,
    0xed, 0x09, 0xbd, 0x7d, 0xaa, 0xd3, 0xbc, 0x9a, 0xcf, 0x2e, 0x3e, 0x99, 0x0b,
    0x47, 0xbe, 0x7d, 0xdb, 0xe1, 0x3e, 0x86, 0xa2, 0x8c, 0x3d, 0x5e, 0xfc, 0x25,
    0x3e, 0x23, 0x68, 0xe1, 0x3d, 0xd9, 0xb8, 0xd2, 0x3e, 0xa7, 0xe3, 0x16, 0x3e,
    0x3f, 0x88, 0x15, 0x3e, 0x54, 0xd1, 0xcc, 0xbd, 0x14, 0x0b, 0x91, 0xbe, 0xb7,
    0xc2, 0x16, 0x3e, 0x60, 0xc8, 0x35, 0x3e, 0xd0, 0x5f, 0x6e, 0x3e, 0x52, 0x68,
    0x1a, 0x3e, 0x83, 0xb3, 0x82, 0xbe, 0x91, 0x25, 0x2c, 0xbd, 0x37, 0xf1, 0x24,
    0xbe, 0x6b, 0xb6, 0xab, 0xbe, 0xa6, 0xe1, 0xaf, 0xbc, 0x65, 0x6e, 0x43, 0xbe,
    0x81, 0x5b, 0x3a, 0xbe, 0x26, 0x95, 0xab, 0xbe, 0x1a, 0x9d, 0x6e, 0xbd, 0xf2,
    0xff, 0x68, 0xbd, 0xb5, 0xc1, 0xa2, 0xbe, 0x22, 0x48, 0x83, 0xbd, 0x69, 0x50,
    0x79, 0xbd, 0x3b, 0xf5, 0x1a, 0xbf, 0x76, 0xdc, 0x7a, 0x3e, 0x72, 0xf8, 0xba,
    0xbe, 0x1e, 0xa1, 0xe8, 0x3e, 0xf6, 0x94, 0xfd, 0xbe, 0xb9, 0xc8, 0xf2, 0xbe,
    0x15, 0x77, 0x10, 0xbf, 0xd9, 0x61, 0xf0, 0x3e, 0xc1, 0xd2, 0x40, 0xbf, 0xfe,
    0x46, 0x31, 0xbf, 0xd8, 0x55, 0xb2, 0xbe, 0xdf, 0x8f, 0x3e, 0x3e, 0xad, 0x44,
    0x6e, 0xbe, 0x37, 0x84, 0xa1, 0x3e, 0x86, 0xe8, 0x1d, 0xbf, 0x56, 0x2c, 0x8b,
    0xbe, 0x39, 0x62, 0xef, 0xbe, 0x49, 0xc4, 0xda, 0xbd, 0xbf, 0xfd, 0xd0, 0xbe,
    0xe4, 0xaf, 0x0b, 0x3d, 0x46, 0x50, 0x92, 0x3c, 0xf9, 0x8f, 0x07, 0xbe, 0x8b,
    0x9c, 0xe1, 0xbc, 0x1b, 0x39, 0x8d, 0xbd, 0x11, 0xcd, 0xd9, 0xbc, 0x7d, 0xaf,
    0x28, 0xbd, 0x71, 0x90, 0x0e, 0x3d, 0xde, 0x86, 0x43, 0x3c, 0x20, 0xe3, 0xf9,
    0xbd, 0xf2, 0x5e, 0x56, 0xbd, 0x98, 0xe7, 0x8c, 0x3d, 0x03, 0x84, 0x09, 0xbe,
    0x03, 0x92, 0x3b, 0xbf, 0x5f, 0x7e, 0xc6, 0xbd, 0x3e, 0x98, 0x6e, 0xbe, 0xc9,
    0x44, 0x0a, 0x3d, 0x12, 0x0a, 0x9c, 0x3e, 0x56, 0x67, 0x87, 0xbd, 0x51, 0x43,
    0xec, 0x3d, 0xdd, 0xd0, 0x5b, 0xbd, 0xff, 0xe9, 0xa7, 0x3c, 0xd8, 0xc1, 0x33,
    0xbd, 0x95, 0x31, 0xdc, 0x3e, 0x11, 0xd4, 0x85, 0x3c, 0xa5, 0xe4, 0x7c, 0x3d,
    0x15, 0xc5, 0x03, 0xbe, 0xdf, 0x4c, 0x4e, 0x3e, 0x0c, 0x2c, 0xd9, 0x3c, 0xca,
    0x8b, 0x57, 0x3e, 0xb2, 0x60, 0x0d, 0x3e, 0x5e, 0xf2, 0x2f, 0xbd, 0xbc, 0x67,
    0x35, 0xbe, 0xae, 0x35, 0x07, 0x3e, 0x6e, 0xdd, 0x21, 0x3e, 0x5f, 0xac, 0x9b,
    0x3e, 0xe0, 0x8e, 0x8a, 0x3b, 0x61, 0x85, 0x35, 0x3e, 0x42, 0x2d, 0x19, 0x3e,
    0x46, 0xcc, 0xe8, 0x3c, 0x8b, 0x06, 0x17, 0x3e, 0x61, 0xa1, 0x3b, 0x3e, 0x83,
    0xe7, 0xcc, 0xbe, 0xb2, 0x66, 0x7a, 0xbd, 0xb3, 0xc5, 0x9e, 0xbe, 0xc8, 0xdd,
    0x08, 0xbd, 0xa4, 0x9b, 0xba, 0xbe, 0xce, 0x29, 0x91, 0x3d, 0x36, 0x98, 0xd8,
    0xbe, 0xa4, 0xe3, 0x07, 0xbe, 0xb1, 0xd0, 0xd6, 0xbd, 0x82, 0x58, 0xaf, 0x3e,
    0x28, 0xe6, 0xfb, 0x3d, 0x1d, 0x74, 0xaf, 0x3e, 0x97, 0x9d, 0xa7, 0xbd, 0xc3,
    0x47, 0x03, 0xbf, 0xae, 0x59, 0xcd, 0x3b, 0x7a, 0x2b, 0xdf, 0xbd, 0x11, 0x37,
    0x98, 0xbe, 0xf9, 0x50, 0x27, 0xbe, 0x5e, 0x03, 0x6c, 0xbe, 0x2d, 0x5d, 0x93,
    0x3e, 0x06, 0x81, 0xd4, 0x3c, 0x78, 0x76, 0x51, 0xbe, 0x08, 0xbc, 0x12, 0x3e,
    0x08, 0x73, 0xe4, 0xbc, 0x9a, 0x8b, 0xeb, 0xbc, 0x26, 0x00, 0x00, 0xbe, 0x48,
    0x8f, 0x08, 0xbd, 0xf4, 0xbb, 0xb0, 0x3e, 0x50, 0xda, 0xa7, 0x3c, 0xc2, 0x6b,
    0x3a, 0xbe, 0xd0, 0x32, 0xd0, 0x3d, 0x49, 0x4a, 0xac, 0xbd, 0xc4, 0xd2, 0xe5,
    0x3d, 0x08, 0x70, 0x11, 0x3e, 0x4c, 0xfb, 0xd7, 0xbe, 0x7d, 0x3a, 0xf9, 0xbd,
    0xd0, 0x12, 0x5a, 0x3d, 0xb0, 0x8a, 0xd8, 0x3b, 0x8a, 0x55, 0xc9, 0x3d, 0x84,
    0x8e, 0xa3, 0xbe, 0xa0, 0xa5, 0xaa, 0xbe, 0xaa, 0x3e, 0x0f, 0xbe, 0xd3, 0x8e,
    0x20, 0x3e, 0xcf, 0x9c, 0xd2, 0xbd, 0xc2, 0x89, 0x53, 0xbe, 0x22, 0xf3, 0xb6,
    0xbc, 0xea, 0x8c, 0x83, 0xbe, 0xaa, 0x28, 0x55, 0x3e, 0xed, 0xe3, 0x08, 0xbf,
    0x1f, 0xcb, 0x33, 0x3e, 0x19, 0x59, 0x1f, 0xbe, 0xc5, 0xfe, 0xec, 0xbd, 0x24,
    0x1c, 0x90, 0x38, 0x51, 0x6d, 0x9b, 0x3e, 0x12, 0xb6, 0x5a, 0xbc, 0x4d, 0x4a,
    0xce, 0xbe, 0x03, 0xd7, 0xf5, 0xbe, 0x30, 0xb5, 0xdb, 0xbe, 0x86, 0x00, 0x5d,
    0xbe, 0x5c, 0x45, 0x17, 0x3e, 0xcc, 0xbc, 0xb9, 0xbe, 0xf3, 0x52, 0xbb, 0xbd,
    0xff, 0x01, 0xb5, 0xbd, 0xc5, 0x4a, 0x55, 0x3e, 0x6c, 0x0e, 0x24, 0x3f, 0x10,
    0xa8, 0xa6, 0x3e, 0x47, 0x1f, 0xb9, 0xbb, 0x0b, 0xb9, 0xa0, 0x3e, 0xbe, 0x89,
    0x65, 0xbe, 0xe0, 0x6a, 0x85, 0x3e, 0x1e, 0x48, 0x3a, 0xbe, 0x4d, 0x8c, 0x9b,
    0xbe, 0x46, 0xc5, 0x12, 0xbc, 0x43, 0xdc, 0x07, 0x3f, 0x96, 0x9f, 0xe9, 0x3c,
    0xe2, 0xd3, 0xfe, 0x3c, 0x2b, 0x80, 0xe5, 0xbd, 0xe3, 0x03, 0x52, 0x3e, 0x7e,
    0xba, 0xd8, 0x3d, 0x8f, 0xe4, 0x64, 0xbf, 0x25, 0x47, 0x1f, 0x3f, 0xe0, 0x0c,
    0x58, 0xbf, 0x74, 0x6b, 0x7e, 0xbf, 0x4d, 0x73, 0x93, 0xbd, 0x72, 0xa0, 0x2d,
    0xbf, 0xcc, 0x71, 0x54, 0x3f, 0x4a, 0xc6, 0x90, 0xbe, 0x4e, 0xd4, 0xba, 0xbe,
    0x38, 0xc0, 0xf1, 0xbe, 0x38, 0xfa, 0x5f, 0x3f, 0xc9, 0x74, 0x6e, 0x3c, 0x02,
    0xbd, 0xbb, 0xbd, 0x28, 0x3d, 0x8f, 0x3e, 0x61, 0xfa, 0x6c, 0xbe, 0xac, 0x36,
    0xdc, 0x3e, 0xa1, 0x93, 0x13, 0x3f, 0x44, 0xc9, 0xbb, 0x3e, 0xc0, 0xf6, 0xc5,
    0xbf, 0x3e, 0xa6, 0x84, 0xbf, 0x39, 0x19, 0x8c, 0x3e, 0xbf, 0x77, 0x50, 0xbd,
    0x06, 0x98, 0x82, 0xbe, 0x3f, 0x14, 0x7c, 0x3d, 0x92, 0x20, 0x12, 0x3e, 0xb8,
    0x9e, 0x51, 0xbe, 0x61, 0x13, 0x3d, 0x3e, 0xb4, 0x33, 0x30, 0xbe, 0x7d, 0x7a,
    0xf0, 0x3d, 0x7c, 0xe2, 0xaf, 0xbe, 0xf3, 0xef, 0x8b, 0x3e, 0xd3, 0x1e, 0x1e,
    0xba, 0xb9, 0x3d, 0x73, 0xbe, 0x56, 0x04, 0xb5, 0xbd, 0x11, 0x36, 0x24, 0x3e,
    0xf1, 0xc6, 0x7f, 0x3e, 0xec, 0x15, 0x5a, 0x3e, 0x17, 0x1a, 0x9b, 0xbe, 0xb0,
    0xfd, 0xee, 0x3b, 0x74, 0x99, 0xb3, 0xbe, 0x59, 0x95, 0xa6, 0xbd, 0x50, 0xee,
    0x3b, 0xbd, 0x70, 0xe6, 0x67, 0xbd, 0x9c, 0xbb, 0x89, 0xbd, 0x66, 0x17, 0x83,
    0x3f, 0x4c, 0x3b, 0xb8, 0xbf, 0xad, 0xb8, 0xf4, 0x3f, 0xd6, 0x9c, 0x8b, 0xbf,
    0x79, 0x7c, 0x06, 0x3f, 0xd9, 0x9d, 0x32, 0x3f, 0x5d, 0x54, 0x90, 0x3f, 0x85,
    0xf7, 0x15, 0x40, 0x87, 0x46, 0x45, 0xbf, 0x06, 0xe9, 0x42, 0xbd, 0xdd, 0x5c,
    0x20, 0x3c, 0x8f, 0x61, 0x23, 0x3f, 0xf8, 0x3a, 0x2c, 0x40, 0x85, 0x5d, 0x62,
    0x3d, 0x93, 0x34, 0x10, 0x40, 0x73, 0x43, 0xe4, 0xbd, 0xda, 0xd4, 0x06, 0x3f,
    0x13, 0x1b, 0xcb, 0xbe, 0xaa, 0xc2, 0x3a, 0x3e, 0xd6, 0xca, 0x22, 0xbf, 0xfc,
    0xf9, 0x33, 0x3f, 0x87, 0x6a, 0x84, 0xbd, 0xb0, 0x5d, 0x55, 0x3f, 0xc1, 0x5f,
    0x91, 0xbe, 0x38, 0xab, 0x25, 0x3e, 0x06, 0x00, 0xb7, 0x3d, 0xa1, 0xf1, 0x55,
    0x3f, 0x68, 0x7b, 0x1e, 0xbf, 0xae, 0x17, 0x5a, 0x3f, 0x84, 0x8f, 0x3d, 0xbf,
    0xfe, 0xba, 0x4d, 0x3f, 0x76, 0x47, 0xfd, 0x3e, 0xfa, 0xb2, 0xab, 0x3e, 0x2d,
    0xf2, 0x7f, 0xbe, 0x22, 0x0f, 0xc4, 0x3e, 0x80, 0x6f, 0x97, 0xbe, 0xe0, 0x77,
    0xc6, 0x3e, 0xb8, 0x4f, 0x07, 0xbf, 0xa6, 0x50, 0xe9, 0xbe, 0x56, 0xfe, 0x9b,
    0x3e, 0x73, 0x62, 0xc9, 0x3e, 0x0d, 0xfb, 0x7e, 0x3d, 0x97, 0x73, 0x1f, 0xbf,
    0x8f, 0x93, 0x88, 0x3f, 0x2f, 0x9a, 0xb9, 0xbd, 0x0a, 0xab, 0x20, 0x3f, 0x85,
    0xd7, 0x9b, 0xbe, 0x13, 0x80, 0x1e, 0xc0, 0xc3, 0x3b, 0x82, 0x3f, 0x8b, 0x28,
    0x45, 0xbd, 0x65, 0x8d, 0xd0, 0x3e, 0xfc, 0x01, 0x09, 0x3f, 0x8f, 0x2d, 0xcd,
    0xbf, 0x2e, 0x00, 0x55, 0xbf, 0xfe, 0xeb, 0x2e, 0x3f, 0x60, 0x81, 0x10, 0x40,
    0xcf, 0x4a, 0x3f, 0xbf, 0x7f, 0x9b, 0x8b, 0x3d, 0x57, 0x3e, 0xf2, 0xbf, 0x65,
    0x2b, 0x5d, 0xbf, 0x96, 0x9d, 0x70, 0xbf, 0xec, 0xa0, 0x5d, 0xbf, 0x0f, 0x2e,
    0x5d, 0x3f, 0x81, 0x70, 0xdb, 0xbe, 0xbc, 0x5f, 0xf6, 0x3e, 0xea, 0xf5, 0xdf,
    0xbe, 0xaa, 0xca, 0x7d, 0x3f, 0x89, 0x29, 0x92, 0x3e, 0xac, 0xf9, 0xef, 0xbf,
    0xf8, 0x23, 0x94, 0x3e, 0x57, 0xc0, 0x18, 0xbf, 0x0b, 0x81, 0x28, 0x3e, 0x54,
    0x6f, 0x4b, 0x3e, 0x32, 0x95, 0x9b, 0xbd, 0xf3, 0xc3, 0x96, 0xbf, 0x56, 0x25,
    0xad, 0xbf, 0x2b, 0x1b, 0xe2, 0x3f, 0xe3, 0x6c, 0x33, 0x3e, 0x43, 0x84, 0x9c,
    0xbf, 0xe2, 0x6c, 0xda, 0xbe, 0x48, 0xb6, 0x19, 0xbf, 0xe9, 0x7c, 0xd4, 0xbe,
    0x0c, 0xd9, 0x90, 0x3e, 0x41, 0x02, 0x39, 0x3d, 0x2d, 0xa8, 0x6f, 0xbf, 0x96,
    0xa8, 0xa8, 0xbe, 0x9d, 0x7b, 0x11, 0x3d, 0x50, 0x88, 0xaf, 0xbe, 0x5c, 0xb9,
    0xf6, 0xbf, 0xa8, 0x6a, 0xc9, 0x3e, 0x43, 0xc5, 0x0f, 0xbd, 0xa4, 0x09, 0x2e,
    0x3f, 0xf8, 0x76, 0xd9, 0x3e, 0x7e, 0x7e, 0x05, 0x40, 0x7a, 0x3f, 0x3f, 0xbf,
    0x31, 0x49, 0x25, 0xc0, 0xff, 0xad, 0xae, 0x3f, 0x0c, 0x11, 0xb7, 0x3d, 0x95,
    0x3b, 0xa3, 0xbf, 0x22, 0x6c, 0x79, 0x3f, 0x59, 0xfe, 0x13, 0xbe, 0x2d, 0xcb,
    0x0c, 0x3f, 0x1c, 0x3e, 0x13, 0xc0, 0x7c, 0x56, 0xa4, 0xbe, 0x16, 0xd5, 0xa8,
    0x3b, 0x77, 0xbb, 0xf5, 0xbe, 0x42, 0x5c, 0x1a, 0xc0, 0xab, 0x13, 0x42, 0x3f,
    0xb0, 0x12, 0xb4, 0xbf, 0x78, 0xfc, 0x1b, 0xc0, 0x1c, 0x8f, 0x50, 0x40, 0x1f,
    0x69, 0x62, 0x3f, 0x7d, 0x66, 0x17, 0x3f, 0x61, 0x18, 0xc2, 0x3f, 0x7f, 0x7f,
    0x0a, 0x40, 0x15, 0x1f, 0xc5, 0xbf, 0xa8, 0xc6, 0x03, 0xbf, 0xe7, 0x8c, 0x3f,
    0x3e, 0x58, 0x83, 0x73, 0x40, 0x24, 0xe2, 0x73, 0xbd, 0x4e, 0xe5, 0x50, 0xbf,
    0x99, 0xcd, 0xe9, 0x3e, 0x6b, 0x65, 0xc8, 0xbe, 0x57, 0x90, 0xe5, 0xba, 0x51,
    0x03, 0x50, 0x3f, 0xcd, 0x93, 0x8f, 0xbe, 0xa0, 0x3b, 0xcf, 0x3e, 0x08, 0x64,
    0x0a, 0xbf, 0x50, 0x6b, 0xa8, 0x3e, 0x8b, 0x62, 0x51, 0x3d, 0x95, 0xf1, 0x23,
    0xbe, 0x7d, 0x54, 0x02, 0xbd, 0xde, 0x21, 0xf8, 0xbd, 0x31, 0xc1, 0x33, 0x3f,
    0x3b, 0x20, 0x1b, 0xbf, 0x83, 0xa8, 0xd7, 0x3f, 0xe8, 0x43, 0xe3, 0x3e, 0xd4,
    0x23, 0xd4, 0xbe, 0x65, 0x6c, 0x37, 0xbe, 0xea, 0x5f, 0xda, 0xbe, 0x99, 0xfd,
    0x75, 0x3e, 0x32, 0xdf, 0x78, 0x3e, 0xe6, 0x03, 0x07, 0x3f, 0xad, 0xbd, 0x3a,
    0xbe, 0xc0, 0x6f, 0xcd, 0x3e, 0xa4, 0x3e, 0x05, 0xbe, 0x1f, 0x8f, 0xae, 0x3e,
    0x5a, 0x16, 0x5c, 0xbe, 0xd3, 0x71, 0x12, 0x3e, 0x52, 0xe8, 0xda, 0xbe, 0xa4,
    0x51, 0xcc, 0x3e, 0xda, 0x90, 0x9e, 0x3e, 0xf8, 0x0d, 0x70, 0x3e, 0x10, 0x9b,
    0x86, 0xbe, 0x6b, 0x22, 0xac, 0x3d, 0x4a, 0x83, 0x84, 0xbe, 0x12, 0x74, 0x42,
    0xbf, 0xf5, 0x71, 0x10, 0x3f, 0x8b, 0xdb, 0x46, 0x40, 0xe7, 0x66, 0x2c, 0xbf,
    0xcc, 0xbe, 0xb0, 0xbf, 0x29, 0xcc, 0xbd, 0xbf, 0xe1, 0xd7, 0xeb, 0x3e, 0xe3,
    0xc0, 0x84, 0xbf, 0x8d, 0xfd, 0xea, 0xbf, 0x87, 0xe8, 0x95, 0xbf, 0xb9, 0x98,
    0xe7, 0x3d, 0x2c, 0x26, 0xac, 0x3e, 0xfc, 0xcd, 0x8a, 0x3d, 0x5a, 0xaf, 0x28,
    0xbf, 0x89, 0xb7, 0xeb, 0x3c, 0x0a, 0xa0, 0x55, 0x3f, 0x5b, 0x00, 0xb7, 0x3f,
    0x8d, 0x3c, 0x9e, 0x3f, 0x69, 0xfe, 0x18, 0xc0, 0x89, 0xb5, 0xb4, 0xbe, 0x22,
    0xb7, 0xc5, 0x3e, 0xc6, 0xef, 0xc1, 0xbe, 0xe7, 0xe4, 0xa0, 0xbe, 0x9a, 0x4c,
    0xa0, 0xbe, 0x0d, 0x8e, 0x69, 0x3e, 0x3e, 0xfc, 0x50, 0x3d, 0x82, 0x44, 0x37,
    0x3e, 0x52, 0x82, 0x9d, 0xbe, 0x48, 0xd8, 0x63, 0x3d, 0x55, 0x43, 0xb3, 0xbe,
    0x8e, 0xdf, 0xc2, 0x3e, 0x33, 0xcf, 0x85, 0xbe, 0x7d, 0x55, 0xb8, 0x3e, 0x7a,
    0xe7, 0x18, 0xbe, 0xe8, 0xab, 0x33, 0xbd, 0x4d, 0x7e, 0x57, 0x3e, 0x78, 0x42,
    0xd0, 0x3e, 0x71, 0xd6, 0xe7, 0xbe, 0x2a, 0x6b, 0x1e, 0x3e, 0xc3, 0xa2, 0xa9,
    0xbe, 0x76, 0xd1, 0xf3, 0x3e, 0x11, 0x3a, 0xf3, 0x3e, 0x28, 0xf9, 0x0c, 0xbe,
    0xe4, 0x0a, 0x08, 0xbf, 0xa4, 0xa4, 0xa5, 0x3f, 0x9a, 0x66, 0xf4, 0xbf, 0xe1,
    0x93, 0x58, 0x3f, 0xc3, 0x0b, 0x3e, 0xbf, 0x8c, 0x73, 0x3e, 0xbf, 0xe5, 0x18,
    0xdd, 0xbc, 0x42, 0xe3, 0x56, 0x3f, 0x7a, 0x11, 0xb2, 0x3f, 0xbd, 0x99, 0xe4,
    0x3e, 0xcc, 0x42, 0x3a, 0x3d, 0x77, 0xe9, 0xe5, 0xbe, 0x72, 0xf4, 0x02, 0x3f,
    0xec, 0x81, 0x82, 0x3f, 0xac, 0xa1, 0x8c, 0xbe, 0x57, 0x4e, 0x66, 0x3f, 0xea,
    0x0f, 0x5a, 0xbf, 0x3b, 0x24, 0x79, 0x3d, 0xb5, 0x55, 0xc3, 0x3e, 0x1e, 0x5c,
    0x5c, 0x40, 0x84, 0x4c, 0xb6, 0xbf, 0x9b, 0x9e, 0xdf, 0x3f, 0x58, 0xd3, 0xf9,
    0x3f, 0x5d, 0x18, 0x37, 0x3f, 0xef, 0x72, 0x8b, 0xbf, 0x6d, 0x4c, 0x9e, 0xbe,
    0x41, 0xcd, 0x81, 0xbe, 0xcf, 0x75, 0x59, 0xbe, 0x1c, 0xbb, 0xb8, 0xbf, 0xef,
    0x6c, 0x49, 0x40, 0xe0, 0x00, 0x59, 0xc0, 0xdb, 0x28, 0x1d, 0xc0, 0xef, 0x7f,
    0x02, 0xbe, 0x40, 0x23, 0x53, 0x3f, 0x74, 0xa8, 0x77, 0xc0, 0x03, 0x62, 0x90,
    0x3f, 0x29, 0x88, 0x68, 0x3f, 0x06, 0xcb, 0x8b, 0xbe, 0xab, 0xe0, 0xaf, 0xbe,
    0x65, 0x1a, 0xe9, 0xbf, 0x0c, 0x57, 0x4a, 0x3c, 0xa6, 0x16, 0x2f, 0xbe, 0x8c,
    0xd3, 0x9f, 0xbf, 0x9a, 0x8f, 0x07, 0xbe, 0x4c, 0x3c, 0x90, 0x3e, 0xc0, 0x88,
    0xed, 0xbf, 0xa1, 0x3c, 0x5b, 0x3f, 0x2c, 0xc2, 0x37, 0xbd, 0xab, 0x2d, 0x9c,
    0xbe, 0xef, 0xd5, 0x01, 0xc0, 0x3c, 0xf7, 0xa2, 0x3f, 0x9e, 0xae, 0xa2, 0x3d,
    0x67, 0x6f, 0xcd, 0x3e, 0xd1, 0x3e, 0x00, 0xbf, 0x56, 0x55, 0x26, 0x40, 0xac,
    0x33, 0x10, 0x3e, 0xc2, 0x04, 0x32, 0xbf, 0xc8, 0x0c, 0xd6, 0xbd, 0xd4, 0xff,
    0xbf, 0xbe, 0x5c, 0x2b, 0x43, 0xbf, 0xa6, 0xa4, 0x69, 0xbd, 0x60, 0x07, 0x3d,
    0xbe, 0xbd, 0x71, 0xe1, 0x3f, 0xba, 0x81, 0x91, 0xbd, 0xc7, 0x2a, 0x81, 0x3f,
    0x7d, 0xaf, 0x37, 0xbe, 0x4f, 0x7e, 0x3c, 0x3f, 0xc4, 0xab, 0x2f, 0xbe, 0x60,
    0xa3, 0x72, 0xc0, 0x2f, 0x65, 0x3e, 0xbf, 0x4d, 0x65, 0xc9, 0xbf, 0x8c, 0x9b,
    0x40, 0xbe, 0x30, 0x1f, 0x8a, 0xbd, 0x6b, 0x69, 0xac, 0xbf, 0x01, 0x44, 0x4f,
    0xbe, 0x01, 0x41, 0xaa, 0x3d, 0x34, 0x7e, 0xa2, 0xbe, 0x89, 0x83, 0xc2, 0x3d,
    0x3c, 0x5c, 0x8f, 0xbc, 0xba, 0xa3, 0x97, 0x3c, 0x44, 0x90, 0xe1, 0x3b, 0xa3,
    0xaa, 0x14, 0x3f, 0x25, 0xa8, 0xbf, 0x3e, 0x90, 0x3b, 0xb4, 0x3e, 0x76, 0x96,
    0xa0, 0x3e, 0x1a, 0x4f, 0xab, 0x3e, 0x6a, 0x93, 0x12, 0x3f, 0x21, 0xc9, 0x95,
    0xbd, 0x1b, 0x51, 0x09, 0xbf, 0xe1, 0x24, 0x5b, 0xbc, 0xd6, 0x81, 0xb2, 0xbe,
    0x42, 0xc7, 0x13, 0x3e, 0x80, 0xdf, 0xdb, 0x3e, 0xa3, 0x6f, 0x1b, 0x3e, 0x6f,
    0xdc, 0xdf, 0x3c, 0x38, 0x42, 0xe6, 0x3e, 0x94, 0xdc, 0x85, 0x3d, 0xb2, 0x1f,
    0xa3, 0x3c, 0x20, 0xf8, 0x71, 0xbe, 0xd8, 0x9e, 0x6f, 0xbd, 0x79, 0xd5, 0x1f,
    0xbf, 0x91, 0x54, 0x06, 0x3f, 0xed, 0xd8, 0xc6, 0xbc, 0x77, 0x93, 0x34, 0x3e,
    0xee, 0xcf, 0x68, 0xbe, 0x4c, 0x3d, 0x34, 0x3d, 0x48, 0x8c, 0x43, 0xbe, 0xaa,
    0x88, 0xca, 0x3e, 0x9f, 0x0d, 0x0e, 0xbf, 0x1c, 0xea, 0x22, 0x3e, 0x13, 0x3d,
    0xde, 0xbe, 0xf2, 0x37, 0x22, 0x3e, 0x0e, 0x5a, 0x89, 0x3e, 0x0b, 0xa7, 0x74,
    0xbe, 0x67, 0x12, 0x4b, 0xbe, 0xbd, 0x32, 0x15, 0x3e, 0x9d, 0xe2, 0xf3, 0xbe,
    0x4a, 0x4b, 0xad, 0xbf, 0xb5, 0xa1, 0x70, 0x3f, 0xe5, 0x51, 0xd5, 0xbf, 0x3c,
    0xb9, 0x5a, 0xbe, 0xff, 0x93, 0xa0, 0xbf, 0xe7, 0x8b, 0x93, 0x3f, 0x21, 0x01,
    0x6b, 0x3f, 0x9e, 0x2e, 0x22, 0xbf, 0x6c, 0x2a, 0xfb, 0x3d, 0x08, 0xcd, 0xb1,
    0xbe, 0xde, 0xc7, 0x0e, 0x3f, 0xd1, 0x11, 0x2c, 0xbf, 0x92, 0xb5, 0xa7, 0xc0,
    0x07, 0xf9, 0x4c, 0x3e, 0x7e, 0x88, 0x4f, 0xbf, 0xa3, 0x5e, 0xc3, 0x3e, 0x04,
    0xcc, 0x54, 0xbe, 0x50, 0x06, 0xc3, 0x3f, 0xbf, 0x21, 0x77, 0xbf, 0x44, 0x15,
    0xbf, 0x3e, 0x3f, 0x36, 0x17, 0xbf, 0x68, 0xcb, 0x91, 0xbe, 0x29, 0xf0, 0x22,
    0xc0, 0xd8, 0x50, 0x40, 0x3c, 0xe1, 0x24, 0x16, 0xc0, 0x8a, 0x53, 0xb2, 0x3d,
    0xa5, 0x75, 0x79, 0xbf, 0x06, 0xa0, 0x20, 0x3f, 0x50, 0x8a, 0x4a, 0x3f, 0x57,
    0xa9, 0xef, 0x3e, 0xb9, 0xbc, 0x28, 0xbf, 0x0e, 0xe4, 0x39, 0xbf, 0x3e, 0x46,
    0xe5, 0xbf, 0xd8, 0x9b, 0xbb, 0x3f, 0xcf, 0x9d, 0xa0, 0x3f, 0xe9, 0x55, 0x65,
    0x3e, 0x56, 0x99, 0x52, 0xbf, 0x70, 0xa2, 0xe8, 0x3e, 0x33, 0x03, 0x8a, 0xbf,
    0x32, 0x15, 0x2e, 0xc0, 0x02, 0x7f, 0xa4, 0x3e, 0x1e, 0xe2, 0x9d, 0xbe, 0xdc,
    0x24, 0xcf, 0xbe, 0x6a, 0x19, 0x53, 0x3e, 0x20, 0xda, 0x30, 0x3e, 0x92, 0x35,
    0x84, 0x3e, 0xa4, 0x2c, 0x00, 0xbe, 0xa2, 0x94, 0xba, 0x3e, 0x80, 0x5b, 0xde,
    0x3d, 0x15, 0xa8, 0x1f, 0x3e, 0x4b, 0x4d, 0xaa, 0xbe, 0xb7, 0x8f, 0xdc, 0xbe,
    0x7b, 0xe5, 0xe8, 0xbf, 0x53, 0x25, 0x79, 0x3e, 0xe7, 0x02, 0x6d, 0x3e, 0x02,
    0x25, 0xa3, 0x3f, 0xfc, 0x24, 0xf2, 0xbe, 0x07, 0x91, 0x51, 0x3f, 0x3b, 0x3d,
    0xf8, 0x3e, 0x95, 0x19, 0xbe, 0xbe, 0x79, 0x59, 0x72, 0x3e, 0x39, 0x8e, 0x11,
    0x3e, 0xd5, 0x49, 0x09, 0xc0, 0x1b, 0x35, 0x66, 0x3e, 0xa6, 0xcb, 0x21, 0x3e,
    0xa4, 0xed, 0xab, 0xbe, 0xc0, 0x34, 0x05, 0xbf, 0x55, 0xdc, 0xf4, 0x3d, 0x2f,
    0x56, 0xfa, 0x3f, 0xd0, 0x78, 0xcf, 0xbe, 0xbe, 0xa7, 0xda, 0xbd, 0x78, 0xf2,
    0xa7, 0xbf, 0xf4, 0xf4, 0xf8, 0xbe, 0xf3, 0x5b, 0x04, 0xbe, 0x90, 0x43, 0x7e,
    0x3f, 0x51, 0x30, 0x9f, 0x3e, 0x62, 0xd4, 0x68, 0xbf, 0x36, 0xc2, 0x92, 0xbe,
    0x20, 0xde, 0x23, 0x3f, 0x78, 0xc6, 0x3c, 0xbf, 0xda, 0x9b, 0xff, 0xff, 0x04,
    0x00, 0x00, 0x00, 0x40, 0x01, 0x00, 0x00, 0x24, 0x9e, 0xd7, 0xbc, 0x86, 0xaf,
    0xa5, 0xbc, 0x34, 0xcb, 0xff, 0x3e, 0x94, 0x49, 0x77, 0xbc, 0x9e, 0x92, 0xd4,
    0xbc, 0xe6, 0x39, 0x68, 0xbc, 0xc9, 0x2e, 0x04, 0x3d, 0x23, 0x59, 0xb5, 0x3e,
    0xbb, 0xd7, 0x46, 0xbd, 0x6e, 0xfa, 0xd6, 0xbc, 0x56, 0x5e, 0x7b, 0xbc, 0x72,
    0xb8, 0x3d, 0x3b, 0x8d, 0x11, 0xea, 0x3e, 0x65, 0x75, 0xcd, 0x3c, 0x09, 0xfd,
    0x13, 0xbc, 0x6d, 0xb2, 0x71, 0x3e, 0x37, 0x4c, 0xf9, 0x3e, 0x2b, 0xf9, 0x14,
    0xbc, 0xee, 0x0e, 0x05, 0xbd, 0xe8, 0xa6, 0x5a, 0x3d, 0x43, 0x66, 0xbf, 0xbe,
    0xfe, 0xdc, 0x0c, 0x3b, 0x31, 0x29, 0xbc, 0x3e, 0x47, 0xfe, 0xf6, 0xbe, 0x9d,
    0x36, 0xfc, 0xbc, 0xab, 0x97, 0x06, 0xbf, 0x35, 0x3e, 0x55, 0xbe, 0x07, 0x9f,
    0x7a, 0x3e, 0x2c, 0xfb, 0x1a, 0x3e, 0xd1, 0xeb, 0xbe, 0x3d, 0x24, 0x7e, 0x85,
    0xbe, 0x74, 0x36, 0x63, 0x3c, 0x36, 0x4f, 0xb5, 0x3e, 0xee, 0x92, 0x86, 0x3c,
    0xe6, 0xb2, 0xcc, 0xbc, 0x9e, 0x04, 0x91, 0xbe, 0xb2, 0x4f, 0xd6, 0x3c, 0xa0,
    0xe1, 0x68, 0x3d, 0x99, 0x2e, 0x30, 0xbc, 0xc7, 0x0e, 0x88, 0x3c, 0xf9, 0x34,
    0xfc, 0x3c, 0x78, 0xab, 0x0e, 0xbd, 0xb1, 0xd2, 0x95, 0x3e, 0xfb, 0xbb, 0xcc,
    0x3d, 0x86, 0x07, 0xfb, 0x3c, 0x77, 0x56, 0xc9, 0x3d, 0xad, 0xd6, 0x8c, 0xbd,
    0xed, 0x18, 0x63, 0x3e, 0xe6, 0x24, 0x32, 0xbd, 0x38, 0xca, 0xaa, 0x3e, 0x28,
    0x9e, 0x71, 0xbe, 0xdd, 0x95, 0x02, 0xbe, 0xed, 0xf5, 0x89, 0x3e, 0xf3, 0x1e,
    0x31, 0xbd, 0x0e, 0xf5, 0xbd, 0x3e, 0x8b, 0x1c, 0x06, 0x3e, 0x8f, 0xc5, 0x9d,
    0xbe, 0xed, 0x39, 0x26, 0xbd, 0xeb, 0x98, 0x83, 0x3d, 0x7b, 0x54, 0x38, 0x3d,
    0x76, 0xe1, 0x74, 0x3d, 0x99, 0x25, 0xde, 0x3e, 0x96, 0xff, 0xa5, 0xbd, 0x74,
    0xed, 0xbf, 0x3d, 0x43, 0x07, 0xd2, 0x3d, 0x40, 0xdc, 0x9c, 0x3c, 0x8d, 0x75,
    0x79, 0xbc, 0x91, 0xd3, 0xae, 0x3e, 0x3b, 0x56, 0x4a, 0x3d, 0xc7, 0xe8, 0x00,
    0x3f, 0x71, 0x2b, 0x54, 0x3d, 0xae, 0x27, 0x9d, 0x3c, 0x6d, 0x5b, 0x3b, 0xbd,
    0x82, 0xe9, 0x11, 0xbd, 0x9d, 0x3e, 0x2d, 0x3f, 0x93, 0xd6, 0x0d, 0xbf, 0x51,
    0xcc, 0xce, 0x3c, 0xa5, 0xfd, 0x03, 0xbd, 0xfb, 0x3a, 0x83, 0xbc, 0x90, 0x38,
    0x42, 0xbd, 0x64, 0x86, 0xff, 0xff, 0x68, 0x86, 0xff, 0xff, 0x6c, 0x86, 0xff,
    0xff, 0x70, 0x86, 0xff, 0xff, 0x74, 0x86, 0xff, 0xff, 0x78, 0x86, 0xff, 0xff,
    0x7c, 0x86, 0xff, 0xff, 0x80, 0x86, 0xff, 0xff, 0x84, 0x86, 0xff, 0xff, 0x88,
    0x86, 0xff, 0xff, 0x8c, 0x86, 0xff, 0xff, 0x90, 0x86, 0xff, 0xff, 0x94, 0x86,
    0xff, 0xff, 0x98, 0x86, 0xff, 0xff, 0x9c, 0x86, 0xff, 0xff, 0xa0, 0x86, 0xff,
    0xff, 0xa4, 0x86, 0xff, 0xff, 0xa8, 0x86, 0xff, 0xff, 0xac, 0x86, 0xff, 0xff,
    0x72, 0x9d, 0xff, 0xff, 0x04, 0x00, 0x00, 0x00, 0x10, 0x00, 0x00, 0x00, 0x49,
    0x25, 0x30, 0x13, 0x00, 0x00, 0x00, 0x00, 0xde, 0x74, 0x02, 0x00, 0x00, 0x00,
    0x00, 0x00, 0x8e, 0x9d, 0xff, 0xff, 0x04, 0x00, 0x00, 0x00, 0x10, 0x00, 0x00,
    0x00, 0x88, 0x0d, 0x75, 0x31, 0x00, 0x00, 0x00, 0x00, 0xde, 0x74, 0x02, 0x00,
    0x00, 0x00, 0x00, 0x00, 0xe8, 0x86, 0xff, 0xff, 0xec, 0x86, 0xff, 0xff, 0xf0,
    0x86, 0xff, 0xff, 0xf4, 0x86, 0xff, 0xff, 0xf8, 0x86, 0xff, 0xff, 0xfc, 0x86,
    0xff, 0xff, 0x00, 0x87, 0xff, 0xff, 0x04, 0x87, 0xff, 0xff, 0x08, 0x87, 0xff,
    0xff, 0x0c, 0x87, 0xff, 0xff, 0x10, 0x87, 0xff, 0xff, 0x14, 0x87, 0xff, 0xff,
    0x18, 0x87, 0xff, 0xff, 0x1c, 0x87, 0xff, 0xff, 0x20, 0x87, 0xff, 0xff, 0x24,
    0x87, 0xff, 0xff, 0x28, 0x87, 0xff, 0xff, 0x2c, 0x87, 0xff, 0xff, 0x30, 0x87,
    0xff, 0xff, 0x34, 0x87, 0xff, 0xff, 0x38, 0x87, 0xff, 0xff, 0x3c, 0x87, 0xff,
    0xff, 0x40, 0x87, 0xff, 0xff, 0x44, 0x87, 0xff, 0xff, 0x48, 0x87, 0xff, 0xff,
    0x4c, 0x87, 0xff, 0xff, 0x50, 0x87, 0xff, 0xff, 0x54, 0x87, 0xff, 0xff, 0x58,
    0x87, 0xff, 0xff, 0x5c, 0x87, 0xff, 0xff, 0x60, 0x87, 0xff, 0xff, 0x64, 0x87,
    0xff, 0xff, 0x68, 0x87, 0xff, 0xff, 0x6c, 0x87, 0xff, 0xff, 0x70, 0x87, 0xff,
    0xff, 0x74, 0x87, 0xff, 0xff, 0x78, 0x87, 0xff, 0xff, 0x7c, 0x87, 0xff, 0xff,
    0x80, 0x87, 0xff, 0xff, 0x46, 0x9e, 0xff, 0xff, 0x04, 0x00, 0x00, 0x00, 0x04,
    0x00, 0x00, 0x00, 0x8b, 0xad, 0x7a, 0xbf, 0x56, 0x9e, 0xff, 0xff, 0x04, 0x00,
    0x00, 0x00, 0xc8, 0x00, 0x00, 0x00, 0xbc, 0x13, 0xe6, 0x3d, 0x4c, 0xd3, 0x3c,
    0xbe, 0x6c, 0xa8, 0x9b, 0xbe, 0x8f, 0x62, 0xe6, 0xbd, 0xda, 0x17, 0x8a, 0xbe,
    0x34, 0x8e, 0x4d, 0xbd, 0xf1, 0x50, 0xc6, 0xbd, 0x97, 0x14, 0x9c, 0xbd, 0x9a,
    0x7e, 0xd6, 0xbd, 0xdc, 0xe3, 0xf4, 0x3d, 0x9f, 0x02, 0x8f, 0xbd, 0xa1, 0x2f,
    0xc9, 0xbc, 0xb4, 0xde, 0x8d, 0x3d, 0x26, 0xa4, 0x6f, 0x3a, 0x2e, 0xc6, 0xbd,
